/**
  ******************************************************************************
  * @file    tinyaudiocnn_data_params.c
  * @author  AST Embedded Analytics Research Platform
  * @date    2025-05-31T18:58:24-0700
  * @brief   AI Tool Automatic Code Generator for Embedded NN computing
  ******************************************************************************
  * Copyright (c) 2025 STMicroelectronics.
  * All rights reserved.
  *
  * This software is licensed under terms that can be found in the LICENSE file
  * in the root directory of this software component.
  * If no LICENSE file comes with this software, it is provided AS-IS.
  ******************************************************************************
  */

#include "tinyaudiocnn_data_params.h"


/**  Activations Section  ****************************************************/
ai_handle g_tinyaudiocnn_activations_table[1 + 2] = {
  AI_HANDLE_PTR(AI_MAGIC_MARKER),
  AI_HANDLE_PTR(NULL),
  AI_HANDLE_PTR(AI_MAGIC_MARKER),
};




/**  Weights Section  ********************************************************/
AI_ALIGNED(32)
const ai_u64 s_tinyaudiocnn_weights_array_u64[3043] = {
  0x3d605866bdc44d59U, 0x3f14652300000000U, 0xbe078abe3e6e5decU, 0xbd02de3c3e078abeU,
  0xc0123bb0be90e3c2U, 0x404c1568bfda8bd7U, 0x3e8d698bc0008e7eU, 0xbeb3fab140440c81U,
  0x3f06fc05bee766e3U, 0xbe833d11bdd6c105U, 0xbfa58a1ebed6c105U, 0xbee8a670bfb5f1c0U,
  0x3fbd66ad3fa58a1eU, 0xbf2239423eee9d94U, 0x3fa4112ebfc717b9U, 0xbfdd36cebe5d36ceU,
  0x3f55d71cbf6bf631U, 0x3fea1e453fa06155U, 0x3ebd8de73e5bb5efU, 0xbe71403ebf08c7daU,
  0xbedbb5efbd92794aU, 0x3e836546bcac5275U, 0x3fef7dc1bec1dcc4U, 0xbf7460f93fd49c0cU,
  0x3f3e9d8f3f34d71fU, 0xc01b2e38bfa89f12U, 0x3f99f56abf794432U, 0x3e93ed48bfc3b1e7U,
  0x3e9a172b3f20410eU, 0x3f9a172bbf7cb55bU, 0xbf016f9f3f235600U, 0x3d31f3efbf485152U,
  0xbd0a6865bcd97f7aU, 0x3d144b47bc8a6865U, 0x3b9e2e2a3c1e2e2aU, 0x3e0ce11d3e9cf1ceU,
  0xbe10e28f3e061c53U, 0x3e820005bd6d1674U, 0xbe58e88fbde4cd56U, 0xbd1bb16dbda086bfU,
  0xbc3854e03cbf6bd5U, 0x3cf8237d3ccd99bfU, 0xbd3854e0bd3be05bU, 0x3cc682cabc4682caU,
  0xbd0dcb23bc54b0b4U, 0x3caa26f6bc1bf90dU, 0xbd42f750bd54b0b4U, 0xbc1bf90dbce9f593U,
  0xbd6d810d3b8dcb23U, 0x3cd4b0b4bd8328b3U, 0xbd7f3a72bd1f8487U, 0x3c94e218bcd4b0b4U,
  0x3b62de9e3d06b42eU, 0xbc2a26f6bdb13debU, 0xbda4d5bfbdcbd402U, 0x3c7f3a72bd8dcb23U,
  0x3c1bf90dbc3854e0U, 0x3b2a26f6bd313debU, 0xbd9dbecabdc13193U, 0xbc86b42ebd2a26f6U,
  0x3d1f84873c8dcb23U, 0xbb8dcb23bd6d810dU, 0xbd6d810dbde118e1U, 0x3cb854e0bd9f8487U,
  0x3c62de9e3d313debU, 0xbd14e218bd3be05bU, 0x3cf10c88bd3f6bd5U, 0x3d5bc7a9bd269b7cU,
  0x3cc682ca3c7f3a72U, 0xbc710c88bcdbc7a9U, 0xbd11569dbd4a0e45U, 0x3d1f8487bd4d99bfU,
  0x3d710c88bbe2de9eU, 0xbd11569dbd666a18U, 0x3bc682cabd6d810dU, 0x3ce9f593bdabecb4U,
  0x3d4a09b9bcfa69ccU, 0x3b63a600bc13f8b3U, 0xbd0b6f46bd779153U, 0xbce3a600bd0b6f46U,
  0xbd0b6f46bc0896ccU, 0xbc0896ccbccce233U, 0xbc2abc80bd19a9a6U, 0xbd6f07e6bd361e66U,
  0x3d0e47c0bd000d60U, 0x3cd84419U, 0xbcb61e66bd3bcf59U, 0xbd000d60bd38f6e0U,
  0xbc2abc80bb0896ccU, 0xbd71e05fbda677c9U, 0x3bfa69ccbc41804cU, 0xbda23313bcb06d73U,
  0x3ca50b8cbd16d12cU, 0xbd9c8220bd845216U, 0xbc584419bc0896ccU, 0xbce3a600bd5b1c93U,
  0xba361e66bbcce233U, 0xbd6f07e6bd99a9a6U, 0xbab61e66bd4a09b9U, 0xbc7a69ccbd5df50cU,
  0x3d223313bd800d60U, 0x3d3bcf593cf4b8d9U, 0x3cc1804c3b8896ccU, 0xbd8fb3fc3d112039U,
  0xbc6f07e6bcc73140U, 0xbab61e663ccce233U, 0xbb63a6003c63a600U, 0xbdb4b229bbfa69ccU,
  0x3c2abc80bd4a09b9U, 0x3ab61e663cfa69ccU, 0x3c361e663c0896ccU, 0xbd983d693cc73140U,
  0xbdb71d49bca2c4b2U, 0x3d74270bbe305516U, 0xbcf4270bbe00dbb8U, 0x3ded5ed9bd305516U,
  0xbd3de57bbd8e6c1cU, 0x3e298ce43db05516U, 0xbcbde57bbdbde57bU, 0xbded5ed9bd22c4b2U,
  0x3e2cf0fdbd74270bU, 0xbd4b75df3dfaef3dU, 0xbd305516bd95344eU, 0xbd8e6c1cbde696a7U,
  0xbca2c4b2bb590643U, 0x3e2628cbbca2c4b2U, 0x3ded5ed9bca2c4b2U, 0x3db055163cbde57bU,
  0xbe4811c6bd15344eU, 0x3e0e6c1cbddfce75U, 0xbdbde57bU, 0xbe2628cbbc22c4b2U,
  0x3e9a4a74bd9bfc80U, 0xbc22c4b2bdfaef3dU, 0x3e0b0803be2628cbU, 0xbdb71d49bda2c4b2U,
  0x3e0b0803bca2c4b2U, 0x3cd90643bddfce75U, 0x3ddfce75bcd90643U, 0xbcf4270b3d590643U,
  0xbed754363d15344eU, 0x3b5906433da2c4b2U, 0x3dd90643bbd90643U, 0xbdc4adadbdb71d49U,
  0x3e901e28be371d49U, 0xbdbde57b3e0e6c1cU, 0xbe87a3eabded5ed9U, 0xbdc4adadbe00dbb8U,
  0xbb43e1b53cab657fU, 0xbc267fdabc891dffU, 0x3d774cf53aeb0edaU, 0x3d12e9483d0e03a3U,
  0xbd5778473c9cb491U, 0xbd6b0edabcc8c75aU, 0x3d9b7b28bca19a36U, 0xbb891dff3c1cb491U,
  0x3d219a363d0e03a3U, 0x3d614390bd12e948U, 0x3d2dd851bd107676U, 0x3cd292a33a1cb491U,
  0xbca67fda3c267fdaU, 0x3d416ee33c74da23U, 0x3c12e9483d06ab2dU, 0x3c43e1b53d726750U,
  0x3a1cb4913beb0edaU, 0x3d04385abaeb0edaU, 0x3d7c32993d28f2acU, 0x3d04385a3d0e03a3U,
  0x3d79bfc73ca67fdaU, 0x3d12e9483a9cb491U, 0x3d689c073bd77847U, 0xbbd778473d155c1aU,
  0xbd2b657f3bfea56cU, 0xbd37a39a3cc8c75aU, 0x3cab657f3d969583U, 0x3ceff47e3d3530c8U,
  0xbce143903c1cb491U, 0xba9cb4913aeb0edaU, 0x3ce143903d8b90d1U, 0x3c8e03a33d7ea56cU,
  0x3d240d08bc6b0edaU, 0xbce143903cba166cU, 0x3ca67fda3cf4da23U, 0x3c6b0eda3d17ceecU,
  0xbcaf8ceabdd07756U, 0x3de668f3bf2e2dd0U, 0xbe3509513de668f3U, 0x3e55f3bd3e7c5a90U,
  0xbcdb7024be999b4dU, 0x3f1afa67bf0d4364U, 0xbef41ff53dc57e87U, 0x3e5b70243e3a85b9U,
  0x3e6668f3bd999b4dU, 0x3e7c5a90bf233502U, 0xbe83a9b03c2f8ceaU, 0x3dc57e873df161c2U,
  0x3ddb70243e24941bU, 0xbe60ec8c3d457e87U, 0x3e0ea27ebd03a9b0U, 0xbd8ea27e3d457e87U,
  0xbe7161c23e350951U, 0xbe4002203e7161c2U, 0x3e6668f33d7161c2U, 0xbd7161c2bddb7024U,
  0xbdba85b93e6be55aU, 0xbcaf8cea3d7161c2U, 0x3eaf8cea3d5b7024U, 0xbd199b4d3e24941bU,
  0xbcaf8ceabe199b4dU, 0xbe9c59803c2f8ceaU, 0x3c83a9b03e24941bU, 0xbe9160b2be83a9b0U,
  0xbdf161c2be6be55aU, 0xbc2f8cea3c83a9b0U, 0xbd03a9b03e7c5a90U, 0xbe55f3bdbeb50951U,
  0x3e350951be24941bU, 0x3c83a9b0bdaf8ceaU, 0x3c83a9b03de668f3U, 0xbe60ec8cbcdb7024U,
  0xbe282f963c2d9c7aU, 0xbaad9c7a3cd90398U, 0x3c8d0f23bd3de325U, 0xbd22c2b2bd87a23fU,
  0x3d127c073d07a23fU, 0xbd953279bc82355cU, 0xbc97e8ebbdb052ecU, 0xbc6eb728bd953279U,
  0xbd74240c3d02355cU, 0xbdd90398be2c4141U, 0x3d48bcedbd02355cU, 0x3c590398bd48bcedU,
  0xbc17e8ebbd127c07U, 0xbcf990efbd33095eU, 0x3d5e707cbd5e707cU, 0xbc435009bd1d55cfU,
  0x3cf990ef3d6eb728U, 0xbe02355cbdad9c7aU, 0x3dc8bcedbd9d55cfU, 0xbc2d9c7abd33095eU,
  0xbceeb7283d17e8ebU, 0xbcce29d1bd8fc595U, 0x3d0d0f23bc6eb728U, 0xbb82355cbc82355cU,
  0xbe1bfa96bcad9c7aU, 0x3d435009bb2d9c7aU, 0xbb2d9c7abdec00b6U, 0xbd7990efbdc35009U,
  0x3d17e8ebbc02355cU, 0xbcb87642bcce29d1U, 0xbd07a23fbdb3095eU, 0xbd6eb728bd87a23fU,
  0xbdc6067bbceeb728U, 0xbc6eb728bd127c07U, 0x3de3dd60bdb052ecU, 0xbd590398bdd0e043U,
  0xbe0cbc893d4e3a4aU, 0xbc48a76b3c05c4f2U, 0xbcd3cd293c5ef2e8U, 0x3c1c106fbd0b57d1U,
  0xbe13b4203ca7362eU, 0x3d48a76b3d2cc90eU, 0xbd8032123c9c106fU, 0x3ca7362e3cd3cd29U,
  0xbcc8a76bbbb25bedU, 0x3d43148b3d82fb82U, 0xbdce3a4a3c1c106fU, 0x3b85c4f23c9c106fU,
  0xbe124f683c753e66U, 0xbcea18a7bd05c4f2U, 0x3d003212bc325bedU, 0xbc325bedbd05c4f2U,
  0xbdb5255dbc1c106fU, 0xbd003212bb85c4f2U, 0x3c325bed00000000U, 0xbc325bed3c85c4f2U,
  0xbcc8a76b3bdef2e8U, 0x3ab25bedbcc8a76bU, 0x3cbd81ac3cc8a76bU, 0x3d05c4f23cb25bedU,
  0xbe30f7353c85c4f2U, 0xbd53cd293c90eab1U, 0x3c90eab1bd0b57d1U, 0xbd325bedbd53cd29U,
  0xbe194700bd003212U, 0xbbdef2e83c90eab1U, 0x3c5ef2e8bd003212U, 0x3bb25bedbcdef2e8U,
  0xbc1c106fbc5ef2e8U, 0x3c5ef2e83c1c106fU, 0xbb325bedbd10eab1U, 0x3c1c106fbc753e66U,
  0xbd1cbb60bbf551ceU, 0xbcfc224dbdd85bb4U, 0x3d0849e4bc4c6ed7U, 0xbbbecddabd26f41eU,
  0xbd6e8150bd84e1a5U, 0xbd04e1a5bdcabab7U, 0xbc0849e4bbbecddaU, 0xbd37fd5bbada0fd4U,
  0xbd9e6f80bce0e053U, 0xbda38bdfbd817966U, 0x3c238bdfbd1282a2U, 0xbd7c224dbc4c6ed7U,
  0xbd7c224dbcbecddaU, 0xbcee8150bcda0fd4U, 0x3c817966bc95eae2U, 0xbd1953213c67b0d1U,
  0xbd34951cbd84e1a5U, 0xbc312cdcbcfc224dU, 0xbb238bdf3bbecddaU, 0xbd04e1a53b5a0fd4U,
  0xbd644892bd8f1a63U, 0xbc5a0fd4bd533f55U, 0xbce0e053bc5a0fd4U, 0xbd7f8a8c3d26f41eU,
  0xbd533f55bb238bdfU, 0x3c8849e43a5a0fd4U, 0x3d6e81503caa5c5eU, 0xbd2023a03cee8150U,
  0xbd8849e4bdc90697U, 0x3c238bdfbc238bdfU, 0x3cf551ce3d37fd5bU, 0xbd8695c53d1cbb60U,
  0xbd4fd716bd533f55U, 0x3c15eae23ada0fd4U, 0x3cbecdda3ca38bdfU, 0xbd7c224d3c8f1a63U,
  0xbd26d529bc96d5c3U, 0xbd391d9ebd22430cU, 0xbd22430c3cfff662U, 0xbc9243a63d148cb5U,
  0x3cf2400bbc36d490U, 0xbc76d228bd3dafbbU, 0xbc848d4e3ce91bd1U, 0xbd16d5c33c9243a6U,
  0x3c5b6579bd1db0efU, 0xbd091f6cbcdb6579U, 0xbcedadeebc891f6cU, 0xbc96d5c33bedadeeU,
  0xbc891f6cbd6b64dfU, 0xbd56d35cbd4daf21U, 0xbbb6d4903ce91bd1U, 0xbcedadee3bfff662U,
  0x3c1b67e0bd191ed2U, 0xbd6dadeebcedadeeU, 0xbc96d5c33cedadeeU, 0xbc76d2283ce91bd1U,
  0x3c248c1b3a9243a6U, 0xbd76d228bd6489b3U, 0xbd1243a6bb9243a6U, 0xbd46d3f63c091f6cU,
  0xbd2ff964bd3ff8caU, 0xbd2b67473b9243a6U, 0x3ba48c1b3d87fae4U, 0xbd4b66133d0ffa97U,
  0xbc96d5c3bd46d3f6U, 0xbcc91d04bba48c1bU, 0x3c76d2283d548a4dU, 0xbd6ff6fc3d024440U,
  0xbc091f6cbd2b6747U, 0xbc2db05500000000U, 0x3d26d5293d911f1fU, 0xbd1db0ef3d46d3f6U,
  0xbed797d2beb7f245U, 0xbe39ec9ebe262526U, 0xbe6d59a33da62526U, 0xbdc5cab3be945806U,
  0xbdbde150bd8e68fcU, 0x3ecfae6f3eb9ec9eU, 0xbe7d2c6abcdd86ddU, 0xbe906354U,
  0xbee17b8ebd2e0e89U, 0xbef937b8bd9e3bc2U, 0x3d9e3bc2be8a744aU, 0xbe6964f2be45cab3U,
  0x3d7d2c6a3d1e3bc2U, 0x3d5d86ddbe754307U, 0xbeb7f245be559d79U, 0x3e41d601be754307U,
  0x3e7d2c6a3dcdb416U, 0x3d1e3bc23e262526U, 0x3bfd2c6abe7937b8U, 0x3e067f983cdd86ddU,
  0xbe80908ebd6d59a3U, 0x3d1e3bc23e559d79U, 0x3db5f7ecbe0a744aU, 0x3d0e68fc3e45cab3U,
  0x3ef543073db5f7ecU, 0x3eb3fd93bc3de150U, 0xbcfd2c6a3d6d59a3U, 0x3d867f98bb7d2c6aU,
  0x3d5d86dd3e867f98U, 0xbea81f7ebefb3211U, 0x3d9e3bc23d6d59a3U, 0x3d96525f3e945806U,
  0xbeb008e23c9e3bc2U, 0x3e5d86dd3e9e3bc2U, 0xbe41d6013d2e0e89U, 0xbdfd2c6a3eb008e2U,
  0xbd654150bd83d25bU, 0xbea635c0beb5f8a4U, 0xbe4899263d70b7c7U, 0xbe3a45113d9abf49U,
  0xbd098d96be5131ffU, 0xbe207a85be2635c0U, 0xbe29135e3c376773U, 0xbdf0b7c7bcce5461U,
  0x3ea4c6f1be3489d5U, 0x3de54150be3a4511U, 0x3cfc2e3ebd70b7c7U, 0x3da07a85bd9abf49U,
  0x3cb76773bcb76773U, 0xbd59cad93d8f48d2U, 0xbe15040d3cfc2e3eU, 0xbe1d9ce7bc654150U,
  0x3cce54613db76773U, 0x3cb767733d4e5461U, 0xbc098d96bca07a85U, 0xbb3767733dd40f9dU,
  0x3e9abf493cfc2e3eU, 0x3e40004cbbb76773U, 0x3ca07a85bddf8614U, 0x3e4b76c43bb76773U,
  0xbe3489d5bdb76773U, 0x3d4e54613e15040dU, 0xbe098d96bc376773U, 0xbda635c03c898d96U,
  0xbdb1ac37bdabf0fcU, 0xbe2635c0bdce5461U, 0xbcce546100000000U, 0x3dd40f9dbdd40f9dU,
  0x3e15040dbd42ddeaU, 0x3e898d96bdf67303U, 0xbe12267000000000U, 0x3e540f9dbdabf0fcU,
  0x3eb17a08be832dacU, 0xbd677dc7be63a215U, 0xbe0ae511be40e8d0U, 0xbdef352cbc76ec90U,
  0xbebd0d1ebdef352cU, 0x3de77dc73ddfc662U, 0x3ecc7be7bdfea3f4U, 0x3de77dc73c39316cU,
  0xbdef352c3d929c76U, 0x3bf6ec90be63a215U, 0xbec6b25cbe29c2a3U, 0x3b76ec90bc9a53daU,
  0x3dc8a035bea20b3eU, 0x3cb9316c3cb9316cU, 0xbed0579a3e129c76U, 0xbd677dc73b76ec90U,
  0x3e8ec0c3be48a035U, 0xbe0ae511bd832dacU, 0x3ec8a035be5fc662U, 0x3da9c2a33b76ec90U,
  0xbee3a2153e7ea3f4U, 0x3e87095f3e0ec0c3U, 0x3c9a53dabe5beab0U, 0x3eb367e1be29c2a3U,
  0xbe88f738bd8ae511U, 0xbe90ae9c3d580efeU, 0xbe7310de3e54334cU, 0xbe63a215bdc0e8d0U,
  0x3ddfc662be39316cU, 0xbcb9316cbe220b3eU, 0xbe4c7be73c76ec90U, 0xbe4c7be73d8ae511U,
  0x3dd80efe3e129c76U, 0x3e6f352c3e317a08U, 0x3ef4feb7be129c76U, 0x3ea01d65be44c483U,
  0xbd16976e3c647bd3U, 0xbda8c4303d5f4a77U, 0xbcf941433d87035aU, 0xbcbaf0f23d16976eU,
  0xbda392d4bcb08e3aU, 0xbda62b823d7e729fU, 0xbd4553aa3dd4e7bfU, 0xbd262b823d35bf96U,
  0xbd916612bc916612U, 0xbdec45dd3d96976eU, 0xbdc7ec583d96976eU, 0x3cb08e3a3d69ad2fU,
  0xbceede8b3c4fb662U, 0xbdf177393ccfb662U, 0xbd07035abcc553aaU, 0xbc4fb662bba62b82U,
  0xbd4553aabd4a8506U, 0xbe24df2b3ceede8bU, 0xbba62b823d262b82U, 0xbd01d1fe3d07035aU,
  0xbd4553aabd116612U, 0xbdf6a8953cf94143U, 0xbd262b823d2b5cdeU, 0xbcf941433c4fb662U,
  0x3c794143bc262b82U, 0xbd99301cbd6ede8bU, 0xbca62b82bc916612U, 0xbd0c34b6bd6ede8bU,
  0xbd262b82bd87035aU, 0xbd899c083c794143U, 0x3c262b82bba62b82U, 0xbd4553aabd20fa26U,
  0xbce47bd3bc3af0f2U, 0xbdb85844bc87035aU, 0x3c4fb662bce47bd3U, 0xbd740fe7bcb08e3aU,
  0xbdbd8034bdee3ac6U, 0xbdcdbe65bc9799c4U, 0x3e8e20273df90ee6U, 0xbd0cc5a3bd1799c4U,
  0xbe42ea443d875b93U, 0x3e381624bd6e3ac6U, 0x3dc854553d922fb3U, 0x3d2d42043dc85455U,
  0xbe5dfc95bdbd8034U, 0x3d4dbe65bd1799c4U, 0x3d81f183bb2d4204U, 0x3dbd8034bd0cc5a3U,
  0x3c589285bdc85455U, 0xbe834c07bd9799c4U, 0x3dc85455be14e4bbU, 0xbd6366a5bd0cc5a3U,
  0xbd381624be0f7aabU, 0x3b2d42043da7d7f4U, 0x3e73a4d6bda7d7f4U, 0xbd6e3ac63d2d4204U,
  0xbdb81624bd226de4U, 0x3e589285bd6e3ac6U, 0xbc01f183bd1799c4U, 0x3e226de4bd9d03d4U,
  0x3d875b93be0a109bU, 0x3eabe780be1799c4U, 0xbdddfc95bd875b93U, 0x3dad4204bd1799c4U,
  0x3e2d4204bc2d4204U, 0x3e55dd7dbdd32875U, 0xbe1799c4bdf3a4d6U, 0x3de8d0b53d226de4U,
  0x3e4b095d3db81624U, 0xbe81f183bdf3a4d6U, 0x3e42ea44bdc85455U, 0x3dee3ac63da7d7f4U,
  0xbdb97abc3d85f516U, 0x3daf2ccebc146230U, 0x3d28fe0cbd2d1d38U, 0x3be6d1a0bd313c64U,
  0xbd9ca0883d85f516U, 0x3cd654f0bbe6d1a0U, 0x3c5654f0bdbb8a52U, 0x3d7f8ca8bdb55b90U,
  0xbd774e503d8e336eU, 0x3d2d1d38bcce1698U, 0xbc9ca088bd9671c6U, 0xbc146230bd4e1698U,
  0xbde2b2743d92529aU, 0xbc774e50bba4dee0U, 0x3d24dee03c66d1a0U, 0x3d49f76cbcf74e50U,
  0xbdaf2cce3d24dee0U, 0xbc83e580bc146230U, 0x3d355b90bd24dee0U, 0x3d24dee0bd28fe0cU,
  0xbdbd99e83c146230U, 0x3c5654f0bd904304U, 0x3d104304bd313c64U, 0xbc66d1a0bdbfa97eU,
  0x3c83e5803d9a90f2U, 0xbe02ddb5bd98815cU, 0x3d6af0ccbd5654f0U, 0x3cef0ff8bc03e580U,
  0xbd9ca0883cbd99e8U, 0xbdad1d38bdad1d38U, 0x3cd654f0bcff8ca8U, 0x3c66d1a0bbe6d1a0U,
  0xbcef0ff83d397abcU, 0xbdb55b90bda0bfb4U, 0x3c774e50bd20bfb4U, 0xbba4dee000000000U,
  0xbd893be0be416002U, 0x3e061d6d3da86c65U, 0x3d609086bcc79ce9U, 0xbcaea94cbdf3473cU,
  0xbd222f7dbcf98423U, 0x3e254df13de09086U, 0x3de090863d609086U, 0xbc479ce9be061d6dU,
  0xbcf98423bd3b231aU, 0x3e3e418e3e0f78c7U, 0x3d5416b83d222f7dU, 0x3e2ea94cbdbb231aU,
  0x3df3473cbe848e33U, 0xbd3b231a3c798423U, 0xbcf98423bcc79ce9U, 0xbdf3473c3da22f7dU,
  0x3dda539fbde09086U, 0xbe093be0bc798423U, 0x3d093be03cc79ce9U, 0xbd479ce9bda22f7dU,
  0x3e254df13cc79ce9U, 0xbd6090863d6d0a55U, 0x3de6cd6d3c479ce9U, 0x3c95b5afbe0c5a54U,
  0x3d82fef9bec60dafU, 0x3e1f110abd893be0U, 0xbe447e75beb03886U, 0xbdf98423be5d7212U,
  0x3d093be0be1f110aU, 0x3e4dd9d0bde09086U, 0xbe0f78c7be95b5afU, 0x3b479ce9be222f7dU,
  0x3ce09086bcf98423U, 0x3d6d0a55bd3b231aU, 0xbda86c65be2ea94cU, 0x3cc79ce9be73473cU,
  0x3eae1daa3eb2d800U, 0xbf44ee26bea2a1dcU, 0x3e8cee03be6c9428U, 0x3e09d4f23ebabc60U,
  0x3c6105c03d6b2408U, 0x3c9747803e3c9466U, 0xbf6bac633eea8624U, 0xbd614aa83e2fb844U,
  0x3e6a77403ef0fa90U, 0xbf56ed503e0f48e0U, 0xbc506a00bd506a00U, 0x3e365cc03ebce010U,
  0xbe824240bec36360U, 0x3e88c5903e1c4f80U, 0x3ea2d2d03f261478U, 0x3e0f48e03e88c590U,
  0xbea2d2d03efe0130U, 0xbf63f3f03d9c4f80U, 0xbd506a003d9c4f80U, 0x3e95cc303edd70a0U,
  0x3efe01303e0f48e0U, 0x3e8242403e9c4f80U, 0x3e9c4f803f83e314U, 0x3dd06a003ea95620U,
  0xbe6a77403e436360U, 0xbec36360bd506a00U, 0xbcd06a00bcd06a00U, 0x3e5d70a03f0583e8U,
  0x3f190dd83e777de0U, 0x3e88c590bf2c97c8U, 0x3e9c4f803f80a16cU, 0xbcd06a00be0f48e0U,
  0x3f128a883ec36360U, 0xbf53aba83cd06a00U, 0xbedd70a0be824240U, 0x3e1c4f803e024240U,
  0x3d9c4f80bf295620U, 0x3e4363603d1c4f80U, 0x3e0f48e03ed6ed50U, 0xbd506a00bdd06a00U,
  0x3c506a003e295620U, 0xbf46a5083d824240U, 0xbee3f3f000000000U, 0x3e0242403eb65cc0U,
  0x3f399e68be1c4f80U, 0x3e777de03db65cc0U, 0x3eafd9703ec9e6b0U, 0xbe8242403e9c4f80U,
  0x3e0f48e03e295620U, 0xbe8f48e0bdb65cc0U, 0xbe5d70a0be824240U, 0x3e0f48e03ee3f3f0U,
  0x3f49e6b0be95cc30U, 0x3e506a00befe0130U, 0x3eafd9703ef77de0U, 0xbe436360bdd06a00U,
  0x3f0c07383e8f48e0U, 0xbf5d70a03c506a00U, 0xbe024240bdd06a00U, 0xbd9c4f803e295620U,
  0x3f777de0bf2c97c8U, 0x3ea2d2d03ebce010U, 0x3ed06a003e295620U, 0x3e5d70a0bd9c4f80U,
  0x3e9c4f803e295620U, 0xbfa614783c506a00U, 0xbd824240bcd06a00U, 0xbcd06a003d9c4f80U,
  0x3fbe80e4be295620U, 0x3e8242403e824240U, 0x3efe01303ec9e6b0U, 0x3dea77403d824240U,
  0x3e506a003e1c4f80U, 0xbf1f91283d1c4f80U, 0xbd9c4f80be9c4f80U, 0x3e0242403ec9e6b0U,
  0x3fcec92cbe8f48e0U, 0x3ea2d2d0be95cc30U, 0x3ea2d2d03f22d2d0U, 0xbe2956203d1c4f80U,
  0xbe6c0f5b3ea36d18U, 0x3f47be3a3f114487U, 0x3f3a1fcd3f310b85U, 0xbf7523a4bf83a61aU,
  0xbf9144873e7e37ecU, 0x3eb595a9bfbc64dfU, 0x3f95ceabbe114487U, 0x3c914487bfa5b22aU,
  0x3e6c0f5b3e7e37ecU, 0x3f310b853ebea9f1U, 0x3e6c0f5b3f709980U, 0xbfa7f73cbefe37ecU,
  0xbf95ceab3ed9e6caU, 0x3f2c8160bf8cba63U, 0x3faec672beec0f5bU, 0xbe236d18bea36d18U,
  0x3e9a58cfbe3595a9U, 0x3e9a58cfbef523a4U, 0x3f59e6ca3e914487U, 0xbf9813bdbef523a4U,
  0xbe9144873ed9e6caU, 0x3dfe37ecbefe37ecU, 0x3f9ee2f43d114487U, 0xbf7523a43e914487U,
  0x3f3595a9bdfe37ecU, 0xbeb595a93e236d18U, 0x3f27f73c3fc57928U, 0x3f3a1fcdbe88303fU,
  0xbf59e6ca3e88303fU, 0x3e88303fbf9813bdU, 0x3f03a61abec7be3aU, 0xbf114487bf88303fU,
  0x3f3a1fcd00000000U, 0x3ebea9f13e914487U, 0x3efe37ec3fb35097U, 0x3f15ceab3d59e6caU,
  0xbf85eb2cbdb595a9U, 0x3f0cba63bf5e70efU, 0x3ea36d183c914487U, 0xbe914487bef523a4U,
  0x3f4c485ebe114487U, 0xbc9144873c914487U, 0x3f5e70ef3f79adc8U, 0x3f1ee2f43e7e37ecU,
  0xbf236d18bf03a61aU, 0xbc914487bdb595a9U, 0xbe114487be59e6caU, 0xbf6c0f5bbed9e6caU,
  0x3f8161083dd9e6caU, 0xbdfe37ecbe9a58cfU, 0x3dd9e6ca401021feU, 0x3f914487bf555ca6U,
  0x3e3595a93c914487U, 0xbe7e37ecbf7e37ecU, 0xbe914487bf310b85U, 0xbf47be3abfd9e6caU,
  0x3fc7be3a3d59e6caU, 0x3e3595a9bc914487U, 0xbe59e6ca401021feU, 0x3eec0f5bbe114487U,
  0x3e7e37ec3dd9e6caU, 0xbfa12806U, 0x3e3595a9bc914487U, 0xbf50d282bf709980U,
  0x3f7e37ecbdd9e6caU, 0xbeac8160be59e6caU, 0x3dfe37ec3fc7be3aU, 0x3f7523a4be114487U,
  0x3f85eb2c3e59e6caU, 0x3e1144873dd9e6caU, 0xbec7be3abe6c0f5bU, 0xbf88303fbf555ca6U,
  0x3ec6a8ad3e9b33c7U, 0x3f5c63203fb0ee3aU, 0x3ef21d933e7852d8U, 0x3dadd397be5f7dc3U,
  0x3c46a8adbc46a8adU, 0x3f5f7dc3bf753836U, 0x3d94fe823c46a8adU, 0xbf8a2148bedf7dc3U,
  0xbd46a8ad3cc6a8adU, 0x3f90568e3f8706a6U, 0x3f11e3df3ee5b308U, 0x3d7852d8bf0893f7U,
  0xbd14fe82bd14fe82U, 0x3f438e0abf6be84dU, 0x3efe881e3e14fe82U, 0xbf753836be9b33c7U,
  0x3ed9487d3cc6a8adU, 0x3f0bae9a3ee5b308U, 0x3f7e881ebd7852d8U, 0x3dadd397be5f7dc3U,
  0x3ec073683ea79e52U, 0x3f49c350be9b33c7U, 0x3e3a3e223e8893f7U, 0xbfb408dd3e14fe82U,
  0x3dc6a8ad3ef852d8U, 0xbe8ec93c3f7e881eU, 0xbe7852d83efe881eU, 0x3e2dd3973e5f7dc3U,
  0xbedf7dc3bd14fe82U, 0x3eebe84dbf629865U, 0xbd14fe823e6be84dU, 0xbf46a8adbf68cdabU,
  0x3e8893f7U, 0xbc46a8ad3f8bae9aU, 0x3e3a3e223eb408ddU, 0xbea79e523e6be84dU,
  0xbed313383e9b33c7U, 0x3eebe84dbf49c350U, 0xbdadd3973e46a8adU, 0xbf68cdabbeccddf2U,
  0xbe5313383ea79e52U, 0x3e3a3e223edf7dc3U, 0x3ef852d83d94fe82U, 0xbe94fe82be531338U,
  0x3ddf7dc33ea79e52U, 0x3edf7dc33cc6a8adU, 0xbd94fe823d7852d8U, 0xbf65b308be8893f7U,
  0x3e21690d3f2dd397U, 0xbe5313383f9b33c7U, 0xbeccddf23e8ec93cU, 0x3f94fe823cc6a8adU,
  0xbef852d8be2dd397U, 0x3f3408ddbfb7237fU, 0xbd94fe823d14fe82U, 0xbf37237fbfc51b5cU,
  0x3e8893f7bc46a8adU, 0x3d94fe823fa1690dU, 0xbee5b3083ef21d93U, 0x3f30ee3abd94fe82U,
  0xbe7852d8bdadd397U, 0x3f407368bf9cc119U, 0x3dc6a8ad3d94fe82U, 0xbf59487dbf9fdbbbU,
  0x3eadd3973e6be84dU, 0xbcc6a8ad3eadd397U, 0xbe14fe823e46a8adU, 0x3f6be84dbef852d8U,
  0x3f0893f73ddf7dc3U, 0x3f753836be94fe82U, 0xbddf7dc3be94fe82U, 0xbfa61101bfac4646U,
  0x3ea03e85bf865286U, 0x3f705dc73f3c85caU, 0x3f08adcc3fa4f510U, 0x3f819bfb3e751453U,
  0xbe29ab9c3f24f510U, 0x3ef51453bc96d16eU, 0x3f992cb43f2e6227U, 0xbf751453bea9ab9cU,
  0x3f9476283dbc85caU, 0x3f203e853ee23a25U, 0x3f37cf3e3f751453U, 0x3eeba73c3ec5f2e0U,
  0xbf16d16e3efe816aU, 0x3f751453bebc85caU, 0x3f6ba73c3f3318b3U, 0xbe8d6457be8d6457U,
  0x3e751453bf24f510U, 0x3f16d16e3e751453U, 0x3f3318b33e96d16eU, 0x3f16d16ebe3c85caU,
  0xbe3c85ca3f79cadeU, 0x3de23a253e83f740U, 0x3fb573f83f08adccU, 0xbffe816abf29ab9cU,
  0x3f66f0b0bf03f740U, 0x3e7514533f29ab9cU, 0x3d623a253fa03e85U, 0xbeeba73c3e83f740U,
  0xbf751453bebc85caU, 0x3ed8cd0ebe83f740U, 0x3ee23a253d623a25U, 0xbf3318b3bf0d6457U,
  0x3f819bfb3e16d16eU, 0x3e4f5ff73e623a25U, 0x3f413c553f6ba73cU, 0xbe4f5ff73f4f5ff7U,
  0xbfb318b3bd96d16eU, 0x3f6ba73cbf08adccU, 0x3ebc85ca3eb318b3U, 0xbf413c55bf03f740U,
  0x3e623a253d623a25U, 0xbe96d16ebd96d16eU, 0x3f24f5103eeba73cU, 0x3d96d16ebe4f5ff7U,
  0xbf1b87f93e29ab9cU, 0x3eeba73c3e83f740U, 0xbd96d16eU, 0xbfdd839abf121ae3U,
  0xbe83f7403f37cf3eU, 0xbe03f7403e3c85caU, 0x3ebc85ca4015a3cbU, 0xbf24f510bf541683U,
  0xbf83f740bfb318b3U, 0x3f16d16ebecf5ff7U, 0x3f2e6227becf5ff7U, 0xbf24f510bf96d16eU,
  0x3f121ae33f79cadeU, 0xbec5f2e0be29ab9cU, 0x3f03f7403fb7cf3eU, 0xbf66f0b0bf29ab9cU,
  0xbfd1bb3dbfb7cf3eU, 0x3f45f2e0bfa03e85U, 0x3eeba73cbe751453U, 0xbe83f740bf865286U,
  0xbee23a253f9b87f9U, 0xbf0d6457bf0d6457U, 0xbea03e853f8fbf9dU, 0xbf2e6227bf3318b3U,
  0xbe623a25bfae6227U, 0x3e96d16ebf3c85caU, 0x3ebc85cabef51453U, 0xbfdb2854bfa299cbU,
  0xbc838bb43eb4e018U, 0x3f8599e33f8599e3U, 0x3f2ca75cbf66347bU, 0xbf6e6d36bf246ea1U,
  0xbf13fd2abf8dd29eU, 0x3d838bb4bfa05243U, 0x3eddfbc0bf38fc75U, 0x3f038bb4befedeadU,
  0x3eddfbc0be038bb4U, 0x3ef6a5f23f9e4415U, 0x3f07a812bf3d18d3U, 0xbfa88affbf55c304U,
  0x3dc5518ebfa46ea1U, 0x3e45518ebfbd18d3U, 0x3e34e018bf55c304U, 0x3f66347b3de6347bU,
  0x3ecd8a49bef6a5f2U, 0x3f288aff3f1c35e6U, 0x3f8fe0cdbf13fd2aU, 0xbfa88affbe55c304U,
  0xbf59df62bf8dd29eU, 0xbe838bb4bf838bb4U, 0xbc838bb4bee6347bU, 0x3f59df623d038bb4U,
  0x3e038bb43f0bc46fU, 0x3dc5518e3f55c304U, 0x3d45518ebfe009efU, 0xbf5dfbc0bf1c35e6U,
  0xbe66347bbe246ea1U, 0xbe13fd2abf038bb4U, 0x3eaca75cbe66347bU, 0x3ea46ea1bf55c304U,
  0xbe838bb43e66347bU, 0x3e9c35e63f838bb4U, 0xbeee6d36bf8bc46fU, 0xbf87a812bf07a812U,
  0xbdc5518ebeddfbc0U, 0xbe838bb4bf181988U, 0x3ee6347bbe246ea1U, 0x3ee6347bbf0bc46fU,
  0xbc838bb43d45518eU, 0xbe8bc46f3f4d8a49U, 0x3e93fd2abfa26072U, 0xbf0fe0cd3e838bb4U,
  0xbeddfbc0bee6347bU, 0x3c838bb4bd838bb4U, 0xbde6347bbea46ea1U, 0x3f038bb4be13fd2aU,
  0x3eb4e0183de6347bU, 0x3f817d853f07a812U, 0xbe45518ec002849dU, 0x3f038bb4be246ea1U,
  0x3e93fd2a3f246ea1U, 0xbd45518ebfd3b4d6U, 0x3e55c304bc838bb4U, 0x3d038bb4bf9a27b7U,
  0x3ebd18d3beee6d36U, 0x3f6a50d93f9a27b7U, 0xbf0bc46fbfb2d1e9U, 0x3ed5c3043ea46ea1U,
  0x3f51a6a73f66347bU, 0x3c838bb4bfbd18d3U, 0x3f13fd2abe038bb4U, 0xbe838bb4bf205243U,
  0x3eee6d36becd8a49U, 0x3ec5518e3f181988U, 0xbe45518ebfb6ee46U, 0x3eddfbc03e66347bU,
  0xbe838bb43f205243U, 0x3de6347bbf76a5f2U, 0x3ed5c3043e55c304U, 0x3e838bb4bf34e018U,
  0x3f3b1ac43ed1ec14U, 0x3f1208673e7f8eb4U, 0x3f84579d3f51ec14U, 0xbec8cb8ebe920867U,
  0xbf84579d3f244974U, 0x3ead69fabf88e7e1U, 0x3fa201523ee42d21U, 0xbe6d4da7bf51ec14U,
  0x3f0d78243d920867U, 0x3ead69fa3e368a81U, 0x3f31fa3e3f766e2eU, 0x3c9208673e48cb8eU,
  0xbf820f7c3f84579dU, 0x3f1fb931bf28d9b7U, 0x3f9d710f3eed4da7U, 0xbe368a81be88e7e1U,
  0x3f04579dbd920867U, 0x3ebfab07be920867U, 0x3f9450893ea44974U, 0xbddb0c9a3db68a81U,
  0xbe9208673f244974U, 0xbe368a81bd5b0c9aU, 0x3f8fc0453ee42d21U, 0xbf3b1ac43e9b28edU,
  0x3ebfab073dff8eb4U, 0xbe244974bd120867U, 0x3f368a813fb68a81U, 0xbedb0c9abe7f8eb4U,
  0xbf48cb8e3edb0c9aU, 0x3eb68a81bf8d7824U, 0x3ec8cb8ebeed4da7U, 0xbeff8eb4bf642d21U,
  0x3f567c57be368a81U, 0x3ea449743e9b28edU, 0x3e6d4da73fc1f329U, 0xbe48cb8ebf08e7e1U,
  0xbf7f8eb43edb0c9aU, 0x3f1698aabf5b0c9aU, 0x3ef66e2ebea44974U, 0xbf2d69fabec8cb8eU,
  0x3f7afe713db68a81U, 0xbeed4da73eed4da7U, 0x3f68bd643f5b0c9aU, 0xbee42d213e244974U,
  0xbead69fa3dff8eb4U, 0x3d5b0c9a3e7f8eb4U, 0xbebfab07bec8cb8eU, 0xbf6d4da7bc920867U,
  0x3f4d5bd13e9b28edU, 0x3d5b0c9abf04579dU, 0x3e48cb8e4010e456U, 0x3f0d7824bf9d710fU,
  0x3e6d4da7U, 0xbddb0c9abf642d21U, 0xbd5b0c9abf1fb931U, 0xbf68bd64bfc8cb8eU,
  0x3f9450893eb68a81U, 0xbd120867be120867U, 0xbea4497440069fbfU, 0x3f6d4da7beff8eb4U,
  0x3e5b0c9a3ef66e2eU, 0x3e368a81bf642d21U, 0xbdff8eb4be5b0c9aU, 0xbf1fb931bf120867U,
  0x3f3fab073e9b28edU, 0xbf04579d3db68a81U, 0xbe6d4da740020f7cU, 0x3f3b1ac4beff8eb4U,
  0x3f8b3002bdb68a81U, 0xbd5b0c9a3f3b1ac4U, 0xbe368a81bd920867U, 0xbf98e0ccbf48cb8eU,
  0x3e308598bf4f69c6U, 0x3efff4ea3f1edea3U, 0x3eb959133f34ef56U, 0x3e3085983df7216fU,
  0xbc8d37ad3f6110bcU, 0x3ec22c8e3eb08598U, 0x3f3085983e846432U, 0xbe9edea3bec22c8eU,
  0x3f395913be308598U, 0x3ec22c8e3eb08598U, 0x3f0464323f308598U, 0x3d8d37ad3e1edea3U,
  0xbdb085983ecb0009U, 0x3ef7216f3e53d384U, 0x3f3085983f2c1bdbU, 0xbe308598bea7b21dU,
  0x3e960b28bedca6feU, 0x3ef7216f3e960b28U, 0x3ec22c8e3e422c8eU, 0x3db08598be422c8eU,
  0xbeb959133f846432U, 0xbe9edea33f11a16aU, 0x3f422c8e3ef7216fU, 0xbf93d649bea7b21dU,
  0x3e9edea3bedca6feU, 0x3e77216f3f234860U, 0x3e960b283f869911U, 0xbedca6febe9edea3U,
  0xbf583d413ea7b21dU, 0x3e8d37ad3e657a79U, 0x3f0464323e77216fU, 0xbf1edea3bf08cdf0U,
  0x3f822f533db08598U, 0x3db085983e8d37adU, 0x3ed3d3843f77216fU, 0xbe53d3843e657a79U,
  0xbf88cdf03db08598U, 0x3f11a16abd53d384U, 0x3dd3d384bd0d37adU, 0xbed3d384befff4eaU,
  0x3ee57a793dd3d384U, 0xbc8d37ad3ef7216fU, 0x3df7216f3f160b28U, 0xbeb95913U,
  0xbf583d413d53d384U, 0xbdb085983eb95913U, 0xbe3085983e308598U, 0xbf8d37adbf308598U,
  0x3f160b283eee4df4U, 0xbd8d37ad3e53d384U, 0xbd53d384400c1d3eU, 0xbc8d37adbf11a16aU,
  0xbf422c8ebf308598U, 0x3f08cdf03c8d37adU, 0x3f11a16abe77216fU, 0xbeb95913bf046432U,
  0x3f3085983f4f69c6U, 0xbe657a79beb95913U, 0x3f160b283fc8cb2aU, 0xbe77216f3c8d37adU,
  0xbf7b8b2cbf4b0009U, 0x3f2c1bdbbe422c8eU, 0x3ec22c8ebd8d37adU, 0xbee57a79befff4eaU,
  0x3eb959133f1a74e5U, 0xbe53d384be0d37adU, 0x3d53d3843fb2ba77U, 0xbedca6febed3d384U,
  0xbedca6febf4b0009U, 0x3e1edea3U, 0xbe308598U, 0xbf93d649bf69e437U,
  0xbd2e0bafbf1f8ab6U, 0x3e0288c3bdae0bafU, 0xbf31abed3eae0bafU, 0xbe89c940bf2a6b71U,
  0xbf87f9213ef6908dU, 0xbf354c2cbd9109bcU, 0x3e0288c3be2e0bafU, 0x3ed24e1e3ef6908dU,
  0x3e8288c3bd9109bcU, 0x3e1f8ab600000000U, 0xbed24e1e3efdd10aU, 0xbe1109bcbf062902U,
  0xbf92d9dc3d2e0bafU, 0xbf2e0baf3dae0bafU, 0x3e76908dbed24e1eU, 0x3ecb0da2bf31abedU,
  0xbd9109bcbd680f94U, 0x3f7dd10a3f1f8ab6U, 0xbe3c8ca83ee0cf17U, 0x3efdd10abeb54c2cU,
  0xbfa6cb323f1109bcU, 0xbe598e9bbeef5011U, 0xbd2e0bafbea6cb32U, 0xbce80f94bf4b0da2U,
  0x3e2e0bafbf09c940U, 0x3e984a39bd2e0bafU, 0xbc680f94be9f8ab6U, 0x3e89c940bf7a30ccU,
  0xbf26cb323f38ec6aU, 0xbef6908d3e680f94U, 0x3ee0cf17beef5011U, 0x3f8458e23d9109bcU,
  0xbde80f94bf0288c3U, 0x3e680f943dae0bafU, 0xbe1109bcbe984a39U, 0x3ebc8ca8bf1f8ab6U,
  0xbf402ce73ef6908dU, 0xbebc8ca83ebc8ca8U, 0x3ecb0da2bf1f8ab6U, 0x3ee80f94bf062902U,
  0x3d680f94bea6cb32U, 0x3f8629023efdd10aU, 0x3e680f94bf09c940U, 0x3f967a1abf4b0da2U,
  0xbf7a30cc3efdd10aU, 0xbe1f8ab6be4b0da2U, 0x3e2e0bafbe1109bcU, 0x3f354c2cbed98e9bU,
  0x3f4eade0bee0cf17U, 0x3e984a39bd2e0bafU, 0xbeef5011bf1f8ab6U, 0x3de80f94bf14a9fbU,
  0xbfe63f753f5d2ed9U, 0xbe76908d3ecb0da2U, 0x3ed24e1e3d2e0bafU, 0x3fafdbce3ea6cb32U,
  0x3eae0bafbe1f8ab6U, 0x3f1bea773e76908dU, 0xbe1109bcbecb0da2U, 0x3f14a9fbbeef5011U,
  0xbfceade03f524e1eU, 0xbdae0baf3ed98e9bU, 0x3e984a393e0288c3U, 0x3f4b0da2be9109bcU,
  0x3f646f56be0288c3U, 0x3fa32af43f38ec6aU, 0xbe2e0bafbf3c8ca8U, 0x3f76908d3e89c940U,
  0xbfd41e3d3f1f8ab6U, 0xbd2e0bafbdcb0da2U, 0xbd9109bc3e1f8ab6U, 0x3f984a39bef6908dU,
  0x3f1164ca3ee8a143U, 0x3f2e78f23f68a143U, 0x3eda172fbf772b57U, 0x3f1164cabef72b57U,
  0x401c4c59bdae78f2U, 0xbeae78f23e82dab6U, 0x3f2733e83ebd0306U, 0xbe9feedebf772b57U,
  0x3ebd03063f6fe64dU, 0x3f35bdfcbdae78f2U, 0x3f95074fbef72b57U, 0xbe68a1433e2e78f2U,
  0x3fc448113de8a143U, 0x3dae78f23ce8a143U, 0x3e2e78f2bce8a143U, 0xbce8a1433d68a143U,
  0x3e82dab63d68a143U, 0xbe9164cabd68a143U, 0x3f95074f3f1feedeU, 0xbe2e78f2be4b8d1bU,
  0xc01164cabde8a143U, 0xbe4b8d1bbf867d3bU, 0xbecb8d1bbf35bdfcU, 0x3eda172f3e9feedeU,
  0x3f18a9d43f1164caU, 0x3d68a1433e82dab6U, 0x3de8a143bf2e78f2U, 0x3e9164cabebd0306U,
  0x3fda172f3e68a143U, 0x3ce8a143beae78f2U, 0x3f0a1fc0bf02dab6U, 0xbee8a143bf95074fU,
  0x3ce8a1433de8a143U, 0x3d68a1433e68a143U, 0x3e2e78f200000000U, 0x3e68a1433e1164caU,
  0x3f8dc2453e82dab6U, 0x3d68a1433ce8a143U, 0x3ce8a143bef72b57U, 0xbee8a1433d68a143U,
  0x3e68a143bdae78f2U, 0xbeda172fbe1164caU, 0x3f9c4c593f444811U, 0x3e82dab63eae78f2U,
  0xbfc7ea96be4b8d1bU, 0x3e4b8d1bbf2e78f2U, 0xbf2733e8bf4b8d1bU, 0x3e68a1433e9feedeU,
  0xbd68a143U, 0x3e9feede3e9feedeU, 0xbf1164cabf18a9d4U, 0x3f1164cabce8a143U,
  0x4066d0003f444811U, 0xbe9feedebdae78f2U, 0xbe4b8d1bbde8a143U, 0xbf52d225bfe4febeU,
  0xbef72b57be82dab6U, 0x3ecb8d1bbd68a143U, 0x3eae78f200000000U, 0xbde8a143be4b8d1bU,
  0x4049bbd83e82dab6U, 0xbdae78f23dae78f2U, 0xbf1feedebe82dab6U, 0xbf52d225bd68a143U,
  0xbf1feedeU, 0xbecb8d1bbf0a1fc0U, 0x3f18a9d43f5a172fU, 0x3ee8a143bdae78f2U,
  0xbfefe64d3ce8a143U, 0x3de8a143bf6fe64dU, 0xbf0a1fc0bf6fe64dU, 0x3e9164cabe9feedeU,
  0x3f024bbe3f407b87U, 0x3f3d85713f1fe897U, 0xbeb1ad1abcbd8571U, 0xbe25d4c33da5d4c3U,
  0xbef2d2f9befeab50U, 0x3fbc0a66bf2bc0eeU, 0x3c3d8571bda5d4c3U, 0xbf2bc0ee3d8e2415U,
  0x3f0541d33f0837e9U, 0x3eabc0ee3f0837e9U, 0xbdd5361fbdbd8571U, 0xbd6ce6cd3e78bf24U,
  0xbeabc0eebe8837e9U, 0x3fb4a330bf3d8571U, 0x3e99fc6c3d0e2415U, 0xbf582c3500000000U,
  0x3eabc0ee3e25d4c3U, 0x3f111a2b3e495dc8U, 0x3dece6cdbee6faa2U, 0x3e78bf24bef2d2f9U,
  0x3e495dc83ecf49f4U, 0x3fabc0eebec95dc8U, 0xbdd5361f3e824bbeU, 0xbf6ce6cd3d3d8571U,
  0x3e31ad1a3f6fdce3U, 0x3e024bbe3f0e2415U, 0xbf2eb7043d6ce6cdU, 0x3f25d4c33f1fe897U,
  0xbf4c53debe8837e9U, 0x3f610e76bee6faa2U, 0x3dece6cdbcbd8571U, 0xbf19fc6c00000000U,
  0xbdbd85713eabc0eeU, 0xbd8e24153e8837e9U, 0xbe55361fbea5d4c3U, 0x3f0837e93e824bbeU,
  0xbf024bbe00000000U, 0x3f3d8571bef8bf24U, 0xbda5d4c33d8e2415U, 0xbf141040be19fc6cU,
  0x3dbd85713ebd8571U, 0x3f1706563eb79945U, 0x3e9fe897be495dc8U, 0x3eb1ad1a3cbd8571U,
  0x3e024bbe3ea5d4c3U, 0x3f66faa2bda5d4c3U, 0x3d6ce6cd3e6ce6cdU, 0xbf6ce6cdbe3d8571U,
  0x3e31ad1a3f28cad9U, 0xbd0e24153f495dc8U, 0xbf8b2dffbe824bbeU, 0x3e610e763eb1ad1aU,
  0xbef8bf24bcbd8571U, 0x3faa45e4bf3d8571U, 0x3e8837e9bd0e2415U, 0xbf28cad9be9fe897U,
  0xbcbd85713ed5361fU, 0x3e8e24153f170656U, 0xbf1cf282be941040U, 0x3e6ce6cdbe78bf24U,
  0xbeece6cdbdbd8571U, 0x3fb4a330bf495dc8U, 0x3e8837e93cbd8571U, 0xbf7bb53abee10e76U,
  0x3da5d4c33d3d8571U, 0x3e78bf243f0e2415U, 0x3eb79945bee10e76U, 0x3ec95dc8be0e2415U,
  0x3f8541d33ebd8571U, 0x3fb1ad1abf379945U, 0xbdbd8571be3d8571U, 0xbfaa45e4bf3a8f5bU,
  0x3f8f5f84be9c6833U, 0xbedf7049bf4cd198U, 0xbfa79437bd6e55a3U, 0xbe32c03abc6e55a3U,
  0xbf87ecd7be6e55a3U, 0x3e8d82d93dd08aefU, 0xbdb2c03a3cee55a3U, 0x3f41a5943eab4d8dU,
  0x3f32c03abe6e55a3U, 0xbe86102cbf7d3afdU, 0xbfec78f8bcee55a3U, 0x3ed08aef3e41a594U,
  0xbf843380bdd08aefU, 0x3f14f5863d94f586U, 0xbe5f7049be508aefU, 0x3ec918423ed7fd9cU,
  0x3edf7049be86102cU, 0xbe86102cbe508aefU, 0xbf455eebbe86102cU, 0xbdb2c03abe14f586U,
  0xbf8ba62ebdb2c03aU, 0x3f5bb6f2bc6e55a3U, 0xbedf7049bed08aefU, 0x3f20218a3e5f7049U,
  0x3f2b4d8dbe7d3afdU, 0xbd94f586bf2b4d8dU, 0xbf6a9c4cbd32c03aU, 0x3f2794373e7d3afdU,
  0xbf720efa3cee55a3U, 0x3e7d3afd3e94f586U, 0x3f1c68333ec91842U, 0x3f2f06e43ed7fd9cU,
  0x3eba32e7bedf7049U, 0x3e32c03abf86102cU, 0xbf720efabec91842U, 0x3f8433803ed08aefU,
  0xbf96d2313cee55a3U, 0x3f23dae03f455eebU, 0x3e41a594be9c6833U, 0x3ec918423edf7049U,
  0x3ed7fd9cbe41a594U, 0xbe508aefbcee55a3U, 0xbe6e55a3beab4d8dU, 0x3faf06e4bdee55a3U,
  0xbf508aefbe5f7049U, 0x3fa3dae03ed7fd9cU, 0xbc6e55a3beab4d8dU, 0x3eba32e73eee55a3U,
  0x3f63299fbe94f586U, 0x3db2c03abe8d82d9U, 0xbfe6e2f63dee55a3U, 0x3e14f5863c6e55a3U,
  0x3e32c03a3ea3dae0U, 0x3f913c2f3f06102cU, 0x3f491842be06102cU, 0x3fad2a383eba32e7U,
  0x3e7d3afdbf3a32e7U, 0x3e5f7049bf367991U, 0xbfc55eebbe86102cU, 0x3f113c2fbe7d3afdU,
  0xbf20218a00000000U, 0x3f89c9823f23dae0U, 0x3c6e55a33cee55a3U, 0x3f87ecd73f6e55a3U,
  0x3db2c03abf3a32e7U, 0x3e508aefU, 0xbf18aedcbf23dae0U, 0x3eab4d8dbe508aefU,
  0xbe32c03a3cee55a3U, 0x3fd44445be23dae0U, 0x3d6e55a3bf0d82d9U, 0x3f6a9c4c3eb2c03aU,
  0x3e570360bf4b7ea0U, 0xbf3c22f4bdf5bab7U, 0xbf628821bedeb136U, 0x3e1994b23cf5bab7U,
  0x3f5ada4bbea8f05eU, 0x3eb84c093f0a3907U, 0x3eb84c09be570360U, 0x3cf5bab73e28f05eU,
  0x3e47a7b5bf6a35f6U, 0xbedeb136beb09e34U, 0xbf1d6b9dbc75bab7U, 0xbcf5bab7bd75bab7U,
  0x3f665f0cbe665f0cU, 0x3eb84c093df5bab7U, 0x3d75bab7bdb84c09U, 0xbc75bab73f11e6ddU,
  0xbc75bab7bf34751eU, 0xbeb09e34bedeb136U, 0xbe1994b2be665f0cU, 0x3e0a3907be828b31U,
  0xbeee0ce1be75bab7U, 0xbf11e6ddU, 0x3df5bab7bc75bab7U, 0x3efd688d3f1d6b9dU,
  0x3dd70360bf97a93dU, 0xbed70360be828b31U, 0xbf3ff9dfbe75bab7U, 0xbe665f0cbe665f0cU,
  0x3f665f0cbea8f05eU, 0x3ee65f0c3e0a3907U, 0x3db84c093dd70360U, 0x3c75bab73d9994b2U,
  0xbc75bab7bf9f5713U, 0xbc75bab7bdb84c09U, 0xbf2142883cf5bab7U, 0xbe1994b23db84c09U,
  0x3f809fbcbdd70360U, 0x3ebff9dfbe1994b2U, 0xbe28f05ebd9994b2U, 0xbe28f05e3eee0ce1U,
  0x3d9994b2bf91e6ddU, 0xbe828b31bea8f05eU, 0xbed70360be665f0cU, 0xbd9994b2bdf5bab7U,
  0xbf0e0ff2befd688dU, 0xbcf5bab7bf2cc749U, 0xbe75bab7be828b31U, 0xbc75bab73ef5bab7U,
  0x3dd70360bf97a93dU, 0xbe91e6ddbc75bab7U, 0xbf7d688dbe91e6ddU, 0x3e665f0cbd75bab7U,
  0x3ff3cf42bea8f05eU, 0x3f1994b23e9994b2U, 0xbc75bab73cf5bab7U, 0x3db84c0900000000U,
  0x3e665f0cbf9f5713U, 0xbe28f05ebe75bab7U, 0xbf532c75bc75bab7U, 0xbd384c093c75bab7U,
  0x3ff1e3cc3e28f05eU, 0x3eb84c0900000000U, 0xbea1428800000000U, 0xbd384c093f15bdc8U,
  0x3ea14288bf93d252U, 0xbcf5bab7bec7a7b5U, 0xbf28f05ebdb84c09U, 0xbe5703603d9994b2U,
  0xbe47a7b5be91e6ddU, 0xbdb84c09bf06621cU, 0xbdb84c093e0a3907U, 0x3e1994b23e9994b2U,
  0x3dbf2fe43f61b4fbU, 0xbe14b3783c29f1aeU, 0x3dfeea85bd94b378U, 0xbee9ac4f3ecf1e8cU,
  0xbea9f1aebe0a145dU, 0x3eb9e056bec9ceffU, 0x3dbf2fe43f88c07aU, 0xbda9f1ae3d94b378U,
  0xbda9f1ae3f472738U, 0xbe9f5293bca9f1aeU, 0xbe3f2fe43dfeea85U, 0xbe9a03063ed9bda7U,
  0x3d546e1a3dbf2fe4U, 0x3dd46e1abd7eea85U, 0x3e744b6a3f9dfeb0U, 0x3d7eea85bc29f1aeU,
  0xbcfeea853f41d7aaU, 0xbc29f1aeU, 0x3e14b378bdd46e1aU, 0xbea9f1ae3f1a0306U,
  0x3ebf2fe43e7eea85U, 0x3e1f5293bed9bda7U, 0xbc29f1ae3f8e1007U, 0xbe7eea85bf21fa5aU,
  0x3f1f52933f2c9975U, 0xbef44b6a3dfeea85U, 0xbea4a221be7eea85U, 0xbeb490c93dfeea85U,
  0xbe29f1aebec47f71U, 0x3e49ceffbeb9e056U, 0x3e29f1ae3f120bb2U, 0xbf021d093dd46e1aU,
  0x3de9ac4f3f14b378U, 0xbeeefbdd3d94b378U, 0xbe94b37800000000U, 0xbf1f52933e8a145dU,
  0x3eeefbddbe69ac4fU, 0x3e546e1abe14b378U, 0x3e8a145d3f3490c9U, 0xbde9ac4fbe3f2fe4U,
  0x3ef99af8U, 0xbeb9e0563e49ceffU, 0xbe94b378be5f0d34U, 0xbeaf413b3ee45cc2U,
  0x3f175b3fbdfeea85U, 0x3e5f0d34bf021d09U, 0x3da9f1ae3f645cc2U, 0xbe3490c9beb490c9U,
  0x3ea4a2213f31e902U, 0xbf3738903eb9e056U, 0xbe29f1aebca9f1aeU, 0xbf175b3f3e29f1aeU,
  0x3f3f2fe4be29f1aeU, 0x3ecf1e8c3dbf2fe4U, 0x3f31e9023edf0d34U, 0x3e5f0d343c29f1aeU,
  0x3e49ceff3e7eea85U, 0xbf6704893ea4a221U, 0xbe49ceff3ca9f1aeU, 0xbeb9e0563e9a0306U,
  0x3f98af223d7eea85U, 0x3ed9bda73cfeea85U, 0x3f21fa5a3f4c76c5U, 0x3e744b6a3da9f1aeU,
  0x3e49ceff3ef99af8U, 0xbf3f2fe43e546e1aU, 0xbe3f2fe4be5f0d34U, 0xbe1f52933e3f2fe4U,
  0x3fa89dcbbdbf2fe4U, 0x3eb9e056be84c4d0U, 0x3f120bb23f3c881dU, 0xbd7eea85be3490c9U,
  0x3dc4a6e33e75d09bU, 0x3dd8512dbed8512dU, 0x3e6226523e9867bdU, 0xbeb5e72bbebfbc50U,
  0xbea23ce13d89a805U, 0xbe4e7c08bf99a261U, 0x3f24b22bbdd8512dU, 0x3f3d4707be1d524fU,
  0x3c1d524f3e1d524fU, 0x3f1d524fbd44a6e3U, 0x3e937d2a3ec4a6e3U, 0xbf09a805be4e7c08U,
  0xbf1867bd3ebad1beU, 0xbf2c1206U, 0x3f0e9298bebad1beU, 0x3f8382ce3c9d524fU,
  0xbe58512d00000000U, 0x3e272774bc1d524fU, 0xbd9d524f3dc4a6e3U, 0xbf24b22b3c9d524fU,
  0xbf735b523d6bfb76U, 0xbf735b52bdb0fc99U, 0x3f137d2abe58512dU, 0x3f1add063eac1206U,
  0xbece7c083e3ad1beU, 0xbc1d524fbedd3bbfU, 0x3e937d2a3effa5c0U, 0xbf3d4707bf42319aU,
  0xbebad1bebcebfb76U, 0xbe58512dbf9c17aaU, 0xbd1d524fbee22652U, 0x3f385c753db0fc99U,
  0xbe7fa5c03e09a805U, 0x3eb0fc99bdebfb76U, 0x3e1d524f3f0e9298U, 0xbf75d09bbf0732bcU,
  0xbf1867bdbd9d524fU, 0xbd44a6e3beac1206U, 0x3e4e7c08bef0e609U, 0x3eb5e72bbc1d524fU,
  0xbf0248293dc4a6e3U, 0x3dc4a6e33d6bfb76U, 0x3e3ad1be3e75d09bU, 0xbf5fb108bf1107e1U,
  0xbf8382cebe6bfb76U, 0xbf9107e13d89a805U, 0x3d6bfb76bee710e4U, 0x3debfb763e3ad1beU,
  0x3effa5c0bd1d524fU, 0x3e9867bdbf6710e4U, 0x3ec4a6e33f42319aU, 0xbec99175bef5d09bU,
  0x3e3ad1be3c1d524fU, 0xbf2e8750bf6710e4U, 0xbebad1bebf5ac676U, 0x3dd8512d3d9d524fU,
  0x3eb5e72b3e58512dU, 0x3ec99175bece7c08U, 0xbc1d524f3f8ae2aaU, 0xbdffa5c0bf3ad1beU,
  0xbe9867bd3db0fc99U, 0xbf0c1d4ebefabb2eU, 0xbe272774bf0732bcU, 0x3dffa5c03d44a6e3U,
  0x3effa5c03e272774U, 0xbdd8512dbc9d524fU, 0x3e1d524f3f50f151U, 0xbd44a6e3bed8512dU,
  0xbf69862dbe4e7c08U, 0xbf8ae2aa3f223ce1U, 0xbec4a6e3bf15f273U, 0x3e30fc99bd6bfb76U,
  0xbe0042ccbe51e1aaU, 0xbf29123bU, 0x3e0bebc7be9d6940U, 0xbf032d0bbf4922eeU,
  0xbfb91a953c3a8fb4U, 0x3d6933a1bf434e70U, 0x3d6933a1bf14aa83U, 0x3d6933a13e9794c2U,
  0xbe5d8aa6bec06432U, 0xbe8042ccbf0042ccU, 0x3d6933a1bdba8fb4U, 0xbe3a8fb4bf29123bU,
  0xbf71f25dbda33dbeU, 0x3ecc0d2dbed1e1aaU, 0x3dba8fb4bee933a1U, 0xbe0bebc73f3d79f3U,
  0xbef4dc9cbee35f23U, 0xbe0042ccbdd1e1aaU, 0x3ed1e1aabdd1e1aaU, 0xbc3a8fb4bf032d0bU,
  0xbf4638af3e2ee6b9U, 0xbe0042ccbf31d0f8U, 0xbf31d0f800000000U, 0xbee933a13ef4dc9cU,
  0x3da33dbebe8bebc7U, 0xbe91c045beb4bb36U, 0xbd6933a1bf14aa83U, 0x3ee35f23bf71f25dU,
  0xbf81b7ebbe74dc9cU, 0x3e9d69403cba8fb4U, 0x3f1d6940bf6f081fU, 0x3ef4dc9cbea9123bU,
  0xbc3a8fb4bf37a575U, 0xbde933a1be51e1aaU, 0xbe0042ccbedd8aa6U, 0x3ec06432bf11c045U,
  0xbf961fa3be233dbeU, 0x3f2627fc3d3a8fb4U, 0x3f2bfc7abf1d6940U, 0x3e9d69403ec06432U,
  0x3da33dbebf71f25dU, 0xbea33dbe3c3a8fb4U, 0x3eba8fb4bec638afU, 0x3f29123bbf1794c2U,
  0xbf8bebc7bdba8fb4U, 0x3e6933a13e0bebc7U, 0xbda33dbebf2ee6b9U, 0xbe5d8aa63dd1e1aaU,
  0xbe4638af3eba8fb4U, 0xbd3a8fb4bea9123bU, 0xbeef081fbf4c0d2dU, 0xbf1794c2bf31d0f8U,
  0xbf6649623cba8fb4U, 0x3f51e1aa3ecc0d2dU, 0x3f57b628bef4dc9cU, 0x3f4638afbf74dc9cU,
  0xbe6933a1bde933a1U, 0x3d0bebc7be4638afU, 0xbf061749bf4ef76cU, 0x3d0bebc7becc0d2dU,
  0xbfb91a95be4638afU, 0x3f4ef76c3f2ee6b9U, 0x3f1794c2bf31d0f8U, 0x3e3a8fb4be91c045U,
  0x3d6933a13d3a8fb4U, 0xbe74dc9cbe8bebc7U, 0x3d3a8fb4bf84a22aU, 0xbe233dbebf0042ccU,
  0xbfabfc7a3d3a8fb4U, 0x3f0bebc7bd8bebc7U, 0xbe6933a1bedd8aa6U, 0xbecc0d2dbf0042ccU,
  0x3c81e922be531ad7U, 0xbd01e922bf7fc2fbU, 0x3eeb768ebe122646U, 0xbf2672b4bf2a81fdU,
  0xbfe357fcbde357fcU, 0x3d81e922bf7bb3b2U, 0xbd01e922bf01e922U, 0x3e8a07b43edb3969U,
  0xbf01e922bc81e922U, 0xbec2ddb3bf16358fU, 0x3e6357fcbda2636aU, 0xbe9a44d8bd81e922U,
  0xbf96358fbe6357fcU, 0x3eb2a08fbf32a08fU, 0xbd42ddb3bedb3969U, 0x3e6357fc3f4f0b8eU,
  0xbe739520bee357fcU, 0xbf32a08fbeb2a08fU, 0x3f32a08fbc81e922U, 0x3e9226463e8a07b4U,
  0xbf85f86b3d42ddb3U, 0x3d01e922bf3ece6aU, 0xbf9226463e32a08fU, 0xbd42ddb33f122646U,
  0xbeb2a08fbed31ad7U, 0x3ea2636abeaa81fdU, 0xbecafc45bf22636aU, 0xbde357fcbf83f0c7U,
  0xbfb2a08f3d42ddb3U, 0x3e8a07b4bde357fcU, 0x3f6357fcbf2a81fdU, 0x3f5b3969beaa81fdU,
  0xbe9a44d8bd42ddb3U, 0xbebabf21be922646U, 0xbe6357fcbefbb3b2U, 0x3da2636abea2636aU,
  0xbfd72a20be739520U, 0x3f2672b43e01e922U, 0x3f2672b4bf22636aU, 0x3f1a44d83e122646U,
  0xbda2636abf0a07b4U, 0xbe122646bd01e922U, 0x3f1a44d8befbb3b2U, 0x3e9a44d8be8a07b4U,
  0xbfa05bc6be22636aU, 0x3e81e9223d01e922U, 0x3e01e922be42ddb3U, 0x3de357fc3e42ddb3U,
  0xbe531ad73eaa81fdU, 0x3eeb768ebe122646U, 0xbf42ddb3bf6f85d7U, 0xbf0a07b4bf122646U,
  0xbfae9146be8a07b4U, 0x3f739520bd42ddb3U, 0x3f9c4c7dbf42ddb3U, 0x3fd31ad7bf2e9146U,
  0xbde357fc3e22636aU, 0x3de357fcbd81e922U, 0xbf1a44d8bf1e5421U, 0xbeb2a08fbee357fcU,
  0xc000e550bc81e922U, 0x3f901ea23e01e922U, 0x3f572a20bf572a20U, 0x3f676745bef39520U,
  0xbecafc45U, 0x3e42ddb3bda2636aU, 0xbecafc45bf81e922U, 0x3eaa81fdbeaa81fdU,
  0xbfe96ee9bde357fcU, 0x3f2672b4bf0e16fdU, 0x3f1e5421bf0e16fdU, 0x3e122646bf2a81fdU,
  0x3dd7f2a53e715a7cU, 0xbe12151500000000U, 0xbe9b9c06bef48777U, 0x3e82342f3da522f6U,
  0x3dbe8acdbe4b3eb9U, 0x3ec1b7c8be2522f6U, 0x3e4b3eb93ed7f2a5U, 0xbe8bbb1f3e0bbb1fU,
  0xbc986f0b3e2b7cecU, 0xbea522f63d8bbb1fU, 0xbe121515bee17995U, 0x3e8561293e5198afU,
  0x3c986f0bbdd7f2a5U, 0x3e121515be3e8acdU, 0x3ea522f63ed7f2a5U, 0xbec4e4c33e121515U,
  0x3bcb3eb93d186f0bU, 0xbe64a6903db1d6e2U, 0xbe6b0086befe0e67U, 0x3e5e4c9a3e954210U,
  0x3e77b471be4b3eb9U, 0x3d986f0bbea522f6U, 0x3d7e0e673ef7b471U, 0xbedb1f9fbdcb3eb9U,
  0x3e77b4713d8bbb1fU, 0xbed7f2a53d986f0bU, 0xbda522f6be57f2a5U, 0x3d986f0b3e57f2a5U,
  0xbe056129be77b471U, 0x3e8bbb1fbe0bbb1fU, 0x3e986f0b3eab7cecU, 0xbe9ec9013e82342fU,
  0xbd186f0b3dbe8acdU, 0xbf0561293d64a690U, 0xbe186f0bbe77b471U, 0xbd64a6903e121515U,
  0xbdb1d6e2bdf15a7cU, 0x3e57f2a5bd986f0bU, 0x3eab7cec3e9b9c06U, 0xbe6b00863d7e0e67U,
  0xbccb3eb93e186f0bU, 0xbf0a24a23e186f0bU, 0xbdcb3eb9bea522f6U, 0x3bcb3eb93d8bbb1fU,
  0x3e8ee81abe44e4c3U, 0x3e2522f6be77b471U, 0x3e5e4c9a3eb503ddU, 0xbec811be3df15a7cU,
  0x3e3830d8bccb3eb9U, 0xbf3503dd3e57f2a5U, 0xbe954210bf13ab92U, 0x3e5198afbc986f0bU,
  0x3de4a690bec811beU, 0x3ea522f63e056129U, 0x3eb830d83e9b9c06U, 0xbe186f0b3d7e0e67U,
  0x3d8bbb1fbd986f0bU, 0xbf4811be3e1ec901U, 0xbe8ee81abf056129U, 0x3e1215153e31d6e2U,
  0x3edb1f9fbe0bbb1fU, 0x3ea1f5fb3df15a7cU, 0x3eeb00863e8bbb1fU, 0x3c986f0bbd64a690U,
  0x3d186f0bbc4b3eb9U, 0xbf0bbb1f3e64a690U, 0xbd31d6e2bf49a83cU, 0x3e715a7c3d4b3eb9U,
  0x3efae16cbe82342fU, 0x3e5e4c9abe57f2a5U, 0x3ea1f5fb3ea522f6U, 0xbe3830d8bd7e0e67U,
  0x3ddfd2d200000000U, 0x3f19e0f13ecd2becU, 0x3f3f2ebe3ddfd2d2U, 0x3e8be3c4bf233464U,
  0x3f873a0a3f1e8aaaU, 0x3e153737bfc88232U, 0x3f233464be029050U, 0x3d953737beba8505U,
  0x3f108d7dbe5fd2d2U, 0x3f2334643f313191U, 0x3f0290503e27de1eU, 0xbd5fd2d2bf313191U,
  0x3f2c87d83e029050U, 0x3ec3d878bfba8505U, 0x3eba8505bf073a0aU, 0x3ea7de1ebf313191U,
  0x3ee92646be9e8aaaU, 0x3c9537373e029050U, 0x3eb131913f108d7dU, 0x3c953737beba8505U,
  0xbf7bcd2d3e953737U, 0xbddfd2d2bf567f5fU, 0xbc953737bf108d7dU, 0x3ef279b9be9e8aaaU,
  0x3e3a850500000000U, 0x3eb131913ee92646U, 0x3e9e8aaabeb13191U, 0x3ecd2becbf1e8aaaU,
  0x3f5fd2d23efbcd2dU, 0xbd953737bf4d2becU, 0x3ed67f5fbed67f5fU, 0xbd153737bf692646U,
  0x3ef279b93e029050U, 0x3ecd2bec3ed67f5fU, 0x3ddfd2d23e953737U, 0x3f029050bf488232U,
  0x3f27de1e3c953737U, 0x3e3a8505befbcd2dU, 0x3c953737bf0be3c4U, 0x3ed67f5fbf313191U,
  0xbe27de1ebeb13191U, 0xbdba8505be029050U, 0x3ec3d8783e8be3c4U, 0x3eb13191bf19e0f1U,
  0xbfa0df873e029050U, 0x3e3a8505bee92646U, 0xbe5fd2d2be9e8aaaU, 0x3ea7de1ebec3d878U,
  0x3f7723733f313191U, 0x3ed67f5f3ecd2becU, 0x3f029050bd5fd2d2U, 0x3e8290503d953737U,
  0x40140cc93e829050U, 0xbe9e8aaabf4d2becU, 0xbea7de1ebd5fd2d2U, 0xbd953737bf978c14U,
  0x3f5fd2d23ea7de1eU, 0x3e9e8aaa3d953737U, 0x3eba85053ecd2becU, 0xbe5fd2d2bf233464U,
  0x3fdb29193ee92646U, 0xbe153737bedfd2d2U, 0xbecd2becbe829050U, 0xbe3a8505bf7279b9U,
  0x3f6dd000bdba8505U, 0xbea7de1ebf19e0f1U, 0x3ed67f5f3e153737U, 0x3e3a85053e5fd2d2U,
  0xbfdd7df63ee92646U, 0xbe27de1ebf51d5a5U, 0xbf27de1ebdba8505U, 0x3e5fd2d2bf3a8505U,
  0xbe128f58bdafdf37U, 0x3dcd2f16bf2fdf37U, 0x3edbd7053e6a7ef4U, 0xbf1d8d4cbe4d2f16U,
  0x3f71d2ec3f37332fU, 0xbedbd705bf4d2f16U, 0x3ec5db1ebc6a7ef4U, 0x3f288b3f3e83e769U,
  0xbe128f583d928f58U, 0x3f632afc3e213748U, 0x3f128f583e99e350U, 0xbf003d6dbf128f58U,
  0xbdea7ef43ef1d2ecU, 0xbe928f583cea7ef4U, 0x3f213748beb7332fU, 0x3f163954be2fdf37U,
  0xbdafdf373e3e8726U, 0x3f0791653e03e769U, 0xbe213748beb7332fU, 0xbf6a7ef4bf19e350U,
  0xbfc9851a3ef926e3U, 0xbfe8a9f63eafdf37U, 0x3f803d6dbebe8726U, 0x3ef926e33ea13748U,
  0xbe3e8726beea7ef4U, 0x3dafdf37bee32afcU, 0x3e7926e33eafdf37U, 0xbdcd2f16bef1d2ecU,
  0x3ef1d2ec3ef926e3U, 0xbf03e769bf128f58U, 0x3cea7ef4be928f58U, 0x3cea7ef4bcea7ef4U,
  0xbdafdf37be3e8726U, 0x3eafdf37bc6a7ef4U, 0x3ef1d2ec3f4d2f16U, 0x3d6a7ef4bf2c353bU,
  0xbe4d2f163dea7ef4U, 0xbe6a7ef43e03e769U, 0xbe99e350U, 0x3e6a7ef4bd928f58U,
  0xbe83e7693c6a7ef4U, 0x3e03e7693e03e769U, 0x3e6a7ef4bea88b3fU, 0xbe128f58bf003d6dU,
  0xbfc5db1e3ee32afcU, 0xbfa137483ee32afcU, 0xbe5bd705bf213748U, 0x3e03e7693e128f58U,
  0x3e7926e3becd2f16U, 0x3ef1d2ecbf963954U, 0xbe03e7693f66d4f8U, 0x3f003d6dbcea7ef4U,
  0x3fcd2f163e6a7ef4U, 0xbf128f58bebe8726U, 0xbf1d8d4cbf163954U, 0xbe2fdf373e7926e3U,
  0x3edbd705bf0ee55dU, 0x3edbd705bf163954U, 0x3ef1d2ec3f90ba5bU, 0x3f079165bf163954U,
  0x3fc231223e3e8726U, 0xbf37332fbcea7ef4U, 0xbe2fdf37bf2c353bU, 0xbed4830d3e2fdf37U,
  0x3e83e769bd928f58U, 0x3e5bd705be8b3b61U, 0x3e7926e33ec5db1eU, 0x3d928f58bf163954U,
  0xbf632afc3f0b3b61U, 0xbfa6b6413f632afcU, 0xbf03e769bf3add2aU, 0xbdafdf373dea7ef4U,
  0x3ec085aebef20723U, 0xbe3b0584bf3dc599U, 0xbe0403e53e0f0438U, 0x3ebb0584bd5c067dU,
  0x3c300531bee186a7U, 0x3d8403e53db00531U, 0x3ed68654be51062aU, 0x3f6706d03ebb0584U,
  0x3e1a048bbec605d7U, 0xbd300531bf2a8507U, 0xbe8403e53ea504deU, 0x3ea504debddc067dU,
  0x3e0403e5beb00531U, 0x3dc605d73eb5855bU, 0x3f568654bec085aeU, 0x3f3b0584bc300531U,
  0x3ea504debf11c44dU, 0x3ec605d7bcb00531U, 0xbe8f04383d9a048bU, 0x3e9f84b4be0403e5U,
  0x3ea504debee706d0U, 0x3ddc067d3e0403e5U, 0x3f2504debef20723U, 0x3f38456f3edc067dU,
  0x3f3b0584bf4345c2U, 0xbd9a048bbf568654U, 0xbe8f0438bdc605d7U, 0x3e6706d03e4605d7U,
  0xbe720723bd5c067dU, 0xbcb00531bd8403e5U, 0x3e720723be6706d0U, 0x3f38456f3e1a048bU,
  0x3e89840ebf69c6e5U, 0x3d8403e5bf0403e5U, 0xbef7874d3d0403e5U, 0x3e9a048b3db00531U,
  0xbeaa8507be9a048bU, 0x3d8403e53e948461U, 0x3f0c4423be89840eU, 0x3ee706d03d5c067dU,
  0x3d5c067dbf77874dU, 0x3d0403e5be300531U, 0xbe6706d0bd0403e5U, 0x3e3b05843dc605d7U,
  0x3e5c067dbee706d0U, 0x3db00531bd9a048bU, 0x3ef20723be8f0438U, 0x3efd07763ee706d0U,
  0x3f38456fbf27c4f3U, 0x3e0403e5bfaea527U, 0xbeb005313df20723U, 0x3dc605d73eb5855bU,
  0xbd0403e5be9f84b4U, 0xbd9a048bbe1a048bU, 0x3e948461bcb00531U, 0x3f3dc5993f11c44dU,
  0x3eec86fabf69c6e5U, 0x3d0403e5bf51062aU, 0xbf2d451c3ddc067dU, 0x3cb005313d0403e5U,
  0xbeb5855bU, 0x3e2504de3f0403e5U, 0x3f300531be720723U, 0x3f0403e53e9f84b4U,
  0xbcb00531bf6c86faU, 0x3e2504debe8403e5U, 0xbf09840e3e300531U, 0xbddc067d3d0403e5U,
  0x3ed1062abe4605d7U, 0x3cb0053100000000U, 0x3ed1062abe5c067dU, 0x3ee706d03f32c546U,
  0x3e5be6743f1d985cU, 0x3f50e7bb3fd491f9U, 0x3f45e902be9299a3U, 0xbe1299a3bf879aeaU,
  0xbf5be674bf00466fU, 0x3e793862bfe8ba4cU, 0x3cea8f6bbee33af0U, 0xbeea8f6bbf3e9487U,
  0xbe21429abcea8f6bU, 0x3f37400c3fa89715U, 0x3eb7400cbd6a8f6bU, 0xbf6e39a9bf3e9487U,
  0xbd9299a3be83f0acU, 0x3ef1e3e6bfd2bcdaU, 0x3e99ee1ebf19ee1eU, 0xbef938623c6a8f6bU,
  0xbc6a8f6bbc6a8f6bU, 0x3e5be6743f24ecd7U, 0x3fc069a6bf19ee1eU, 0xbf37400cbebe9487U,
  0xbee33af0bf1299a3U, 0x3eafeb90bf50e7bbU, 0x3e4d3d7ebe5be674U, 0xbec5e9023f1299a3U,
  0x3e83f0ac3f583c37U, 0x3d2feb903f9bc33dU, 0xbe3e9487bf0b4528U, 0xbea89715bebe9487U,
  0xbf289715be6a8f6bU, 0x3d6a8f6bbf85c5cbU, 0x3e3e9487bea89715U, 0x3e5be674bf71e3e6U,
  0xbdcd3d7e3e3e9487U, 0x3e6a8f6b3fac4153U, 0x3cea8f6bbeea8f6bU, 0xbf37400cbee33af0U,
  0xbedbe674be6a8f6bU, 0x3dea8f6bbf9d985cU, 0x3d2feb90be4d3d7eU, 0x3c6a8f6bbea89715U,
  0xbe6a8f6bbe4d3d7eU, 0x3e1299a33f3e9487U, 0x3f37400cbef1e3e6U, 0xbf0b4528be3e9487U,
  0xbe793862be99ee1eU, 0x3edbe674be03f0acU, 0x3e03f0acbe8b4528U, 0xbdcd3d7ebe3e9487U,
  0x3eea8f6b3f2feb90U, 0x3e83f0ac3f80466fU, 0xbe6a8f6bbf583c37U, 0x3f03f0acbdafeb90U,
  0xbf5be6743eb7400cU, 0x3ee33af0bfdf90b2U, 0xbd2feb90bc6a8f6bU, 0xbe3e9487bfbcbf68U,
  0x3e99ee1e3e9299a3U, 0x3f4d3d7e3fbe9487U, 0xbf71e3e6bf03f0acU, 0x3f24ecd7beafeb90U,
  0xbe79386200000000U, 0x3ec5e902bfdf90b2U, 0xbd2feb90be9299a3U, 0xbe2feb90bfc413e3U,
  0x3f19ee1ebe2feb90U, 0x3ebe94873ea89715U, 0x3e99ee1ebf423ec5U, 0x3ec5e9023c6a8f6bU,
  0xbeafeb903ea89715U, 0x3f793862bf45e902U, 0x3d6a8f6bbe2feb90U, 0xbecd3d7ebf6a8f6bU,
  0x3d815abebf199bc2U, 0x3e728a243e31dcc5U, 0xbefa9fd0be918616U, 0x3e918616bf836029U,
  0xbf563e4bbe015abeU, 0xbf015abe3e118616U, 0x3c815abebf0d7b40U, 0x3ea9c7193eb9f271U,
  0xbc815abebe89706aU, 0x3da1b16e3e728a24U, 0xbea9c719bd815abeU, 0x3efa9fd0bf4e289fU,
  0xbf5a4921be625eccU, 0xbea9c7193e42081dU, 0x3e815abebf39f271U, 0x3dc2081dbf0d7b40U,
  0x3e728a24be31dcc5U, 0x3f8565943f1da698U, 0xbe21b16ebde25eccU, 0x3f5e53f7bf35e79bU,
  0xbf876aff3c815abeU, 0xbd42081dbde25eccU, 0xbe728a24bf1590ecU, 0xbd815abebec2081dU,
  0x3da1b16ebe815abeU, 0xbe1186163da1b16eU, 0xbe21b16ebf1da698U, 0xbe21b16ebf9fac03U,
  0xbf09706a3f199bc2U, 0xbe015abe3ea1b16eU, 0x3f09706a3e118616U, 0x3eb1dcc53de25eccU,
  0xbe21b16ebe31dcc5U, 0xbd015abe3e42081dU, 0x3d015abebf0d7b40U, 0xbe42081dbf1da698U,
  0xbf25bc433e42081dU, 0xbe31dcc53eb9f271U, 0x3eb1dcc53c815abeU, 0x3f015abebf31dcc5U,
  0xbeb9f271U, 0x3f21b16e3f4a1dc9U, 0x3e89706abf31dcc5U, 0x3f09706abf42081dU,
  0xbf4a1dc93f39f271U, 0x3d42081dbe118616U, 0x3da1b16e3d42081dU, 0xbdc2081dbe42081dU,
  0x3e999bc2bea9c719U, 0x3f4a1dc93de25eccU, 0xbe918616bf6669a2U, 0x3f8d7b40bf1590ecU,
  0xbfa1b16e3fa1b16eU, 0x3e625eccU, 0x3ec2081d3ea1b16eU, 0x3f4612f33e31dcc5U,
  0x3e523375be89706aU, 0x3f31dcc53f09706aU, 0xbea9c719bf29c719U, 0x3fbdfd47be89706aU,
  0xbfc002b23f9590ecU, 0x3e015abe3eb9f271U, 0x3e815abebe118616U, 0x3ec2081dbec2081dU,
  0x3e815abebd815abeU, 0x3fafd75a3f4612f3U, 0xbe918616bf523375U, 0x400058093d815abeU,
  0xbfb5e79b3fafd75aU, 0xbc815abebe21b16eU, 0xbda1b16e3de25eccU, 0x3e523375bee25eccU,
  0x3e520c06U, 0x3f87a7c43f8c0804U, 0x3f2f0a053f0c0804U, 0xbe2f0a05bf21e945U,
  0x3df50e073e408b06U, 0x3eec4d87c00aeff4U, 0x3eaf0a05bf0c0804U, 0xbf106844be8c0804U,
  0xbd0c0804bec08b06U, 0x3f8577a43f94c884U, 0x3f2f0a053f21e945U, 0xbea64985bf70adc7U,
  0x3f034784bd8c0804U, 0x3f408b06bfe5bd27U, 0x3f21e945be94c884U, 0xbf07a7c4be2f0a05U,
  0xbf106844bf21e945U, 0x3d520c063e2f0a05U, 0x3f8c08043e638d06U, 0x3d8c0804be1d8904U,
  0x3edacc863d520c06U, 0x3eb7ca85bf796e47U, 0x3ed20c06bf494b86U, 0xbf37ca853d8c0804U,
  0x3eb7ca853f2f0a05U, 0x3d520c063f638d06U, 0x3c8c08043e408b06U, 0xbd8c0804U,
  0xbe94c884be94c884U, 0xbd520c06bf929864U, 0x3e750e07be2f0a05U, 0xbf14c884bf264985U,
  0x3ee38d06be1d8904U, 0x3e8347843f87a7c4U, 0xbe1d89043ee38d06U, 0xbef50e073d0c0804U,
  0xbea64985bd520c06U, 0x3e408b06bf9b58e4U, 0xbc8c0804bd0c0804U, 0xbedacc86bf5acc86U,
  0x3c8c08043e0c0804U, 0xbf1d89043edacc86U, 0x3f1068443edacc86U, 0xbd8c0804bdf50e07U,
  0x3e8c0804bf264985U, 0x3e8c08043d8c0804U, 0xbef50e07bdf50e07U, 0xbe2f0a05be9d8904U,
  0x3f9068443eb7ca85U, 0x3eb7ca853fa1e945U, 0x3dd20c063e520c06U, 0x3df50e07bd0c0804U,
  0x3fa64985be408b06U, 0xbe0c0804bf811764U, 0xbdf50e07bec94b86U, 0x3c8c0804c0045f94U,
  0x3f3c2ac53e408b06U, 0x3e408b063f96f8a4U, 0xbe94c8843f0c0804U, 0xbec94b86bf2f0a05U,
  0x3f929864bf520c06U, 0x3c8c0804bf9b58e4U, 0xbd8c0804bc8c0804U, 0xbf2f0a05bff73e27U,
  0x3f106844bdd20c06U, 0xbe750e07bdd20c06U, 0x3eb7ca853edacc86U, 0xbee38d063d520c06U,
  0x3eec4d87bf14c884U, 0x3ec94b86beec4d87U, 0xbed20c06bc8c0804U, 0xbdf50e07bfa879a5U,
  0xbe6b5548bd0679e0U, 0x3f0679e03f38e794U, 0x3e281858bf49b6d0U, 0x3e97491cbf17491cU,
  0x40152f343f824611U, 0xbefc24843d8679e0U, 0x3f5a860cbf0679e0U, 0xbec9b6d0bfdeb9dbU,
  0xbea818583dc9b6d0U, 0x3f7c24843f307ff6U, 0x3fb4b3c5bf0679e0U, 0x3e0679e03d0679e0U,
  0x3fda860c3d8679e0U, 0x3e6b55483e49b6d0U, 0x3d0679e0bf414f32U, 0x3e281858bdc9b6d0U,
  0xbe49b6d0be6b5548U, 0xbefc2484bd0679e0U, 0x3f7c24843f62edaaU, 0xbe49b6d0be281858U,
  0xc0307ff6bd8679e0U, 0x3e49b6d0bf97491cU, 0xbea81858bf281858U, 0x3f414f323f38e794U,
  0xbd8679e03f307ff6U, 0xbe2818583f1fb0baU, 0xbe49b6d0bf281858U, 0x3f8679e0befc2484U,
  0x400893c83eeb5548U, 0x3dc9b6d0be281858U, 0x3efc24843d0679e0U, 0xbf0679e0bfc9b6d0U,
  0xbd0679e0be0679e0U, 0xbd8679e03e49b6d0U, 0x3e6b5548be6b5548U, 0x3f0ee17e3eb8e794U,
  0x3f0ee17ebe49b6d0U, 0xbd0679e03d8679e0U, 0xbefc2484bf307ff6U, 0xbf5a860c00000000U,
  0xbe0679e0bf521e6eU, 0xbe97491c00000000U, 0x3f521e6e3f17491cU, 0x3e2818583e49b6d0U,
  0xbfe72179bdc9b6d0U, 0x3dc9b6d0bf62edaaU, 0xbf0ee17ebf824611U, 0x3f2818583f62edaaU,
  0x3eb8e7943f307ff6U, 0x3e49b6d03ec9b6d0U, 0xbf17491cbf307ff6U, 0x3f0ee17e3d8679e0U,
  0x40856cec3f49b6d0U, 0xbf2818583d8679e0U, 0x3e0679e03f17491cU, 0xbf1fb0babff3bce6U,
  0x3f0ee17ebe6b5548U, 0x3f38e794bd0679e0U, 0xbec9b6d03eeb5548U, 0xbd8679e0U,
  0x404583013ec9b6d0U, 0xbe97491cbe281858U, 0xbf307ff6be0679e0U, 0xbf824611bd8679e0U,
  0x3f1fb0babf414f32U, 0xbeb8e794bf414f32U, 0x3f8ee17e3f38e794U, 0x3d0679e0bd0679e0U,
  0xc023e4893d0679e0U, 0x3e8679e0bf62edaaU, 0xbf414f32bf281858U, 0x3eda860c3e97491cU,
  0x3dccb0ffbeb31adfU, 0xbeb31adfbf032163U, 0xbf7caa7bbe9984bfU, 0xbf1984bfbe597c0fU,
  0xbf66471f3f131f37U, 0x3effdd3f3f2cb557U, 0x3e264fcfbef977b7U, 0x3f0fec733eecaca7U,
  0x3dffdd3fbee6471fU, 0xbd4cb0ffbf364da3U, 0xbf364da3be9984bfU, 0x3e264fcfbe1984bfU,
  0xbf6fdf6b3f1984bfU, 0x3f3fe5ef3f9651fbU, 0xbeb98067bef3122fU, 0x3e8654273f298293U,
  0x3db31adfbf1651fbU, 0xbe9fea473e1984bfU, 0x3de6471fbed97c0fU, 0x3e931f37bed97c0fU,
  0xbf8cb9af3f398067U, 0x3f9984bf3d1984bfU, 0xbe7fdd3fbf2fe81bU, 0xbe4cb0ff3f032163U,
  0x3f1fea47bf032163U, 0xbe865427bf032163U, 0xbf7caa7bbde6471fU, 0x3f531687bec64b77U,
  0xbf5316873f6caca7U, 0x3effdd3f3f065427U, 0x3ef3122fbdccb0ffU, 0x3f0321633eb31adfU,
  0x3f0cb9afbe931f37U, 0xbdb31adfbf0cb9afU, 0xbf0cb9afbe4cb0ffU, 0x3f66471fbf231d0bU,
  0xbf464b773f7644f3U, 0x3f3fe5ef3f8e5311U, 0xbe597c0fbe264fcfU, 0x3d9984bf3f2cb557U,
  0x3ed97c0fbd1984bfU, 0xbd4cb0ff3e331adfU, 0x3e865427bed97c0fU, 0x3fc318b3bf2fe81bU,
  0xbf0fec733f5fe197U, 0x3fa31d0b3e9fea47U, 0x3cccb0ffbf231d0bU, 0xbe73122f3eccb0ffU,
  0x3f0986eb00000000U, 0xbd7fdd3fbe9fea47U, 0xbfbcb32bbe66471fU, 0x3f398067bef977b7U,
  0xbf1651fb3fa98293U, 0x3f9984bf3f9984bfU, 0x3ed316873d7fdd3fU, 0x3ed316873f131f37U,
  0x3d1984bfbef3122fU, 0x3c4cb0ffbeecaca7U, 0xbf8cb9afbe931f37U, 0x3f63145bbdffdd3fU,
  0xbf8cb9af3f8986ebU, 0x3f6caca73fc7e4d9U, 0xbc4cb0ff3e8cb9afU, 0xbeacb5573ea64fcfU,
  0x3f065427bef977b7U, 0xbe66471f3e597c0fU, 0xbf597c0fbf5caed3U, 0x3f97eb5dbf0986ebU,
  0xbf4318b33fcb179dU, 0x3fc318b33e73122fU, 0xbed97c0f3ebfe5efU, 0xbf87ed893eb98067U,
  0x3e0496b43cd42454U, 0x3d9f1b3fbe30c8f0U, 0xbc8d6d8d3edcfb2cU, 0x3e1f1b3f3e4276a2U,
  0x3cd42454bdf77fb7U, 0x3d777fb7bf4040ecU, 0x3ef3144abd8d6d8dU, 0x3f4276a2bdb0c8f0U,
  0x3e4b4d7bbc8d6d8dU, 0x3ed88fc0be4b4d7bU, 0x3dc276a23e542454U, 0x3dd424543cd42454U,
  0xbe65d205bde5d205U, 0x3eb0c8f0bf2c5d84U, 0x3f27f217bdb0c8f0U, 0x3f8c52b2bd8d6d8dU,
  0x3e27f2173d8d6d8dU, 0x3e0d6d8dbe65d205U, 0x3c0d6d8d3d0d6d8dU, 0xbe0d6d8d3d777fb7U,
  0xbde5d205bc8d6d8dU, 0xbe164466bf565a0aU, 0x3f2a27ce3c8d6d8dU, 0x3f4917c43e890221U,
  0xbc0d6d8d3d777fb7U, 0x3e0d6d8dbe91d8f9U, 0xbd9f1b3f3eea3d72U, 0xbeb99fc93e5cfb2cU,
  0xbe164466be0d6d8dU, 0xbe1f1b3fbf2c5d84U, 0x3dc276a23d0d6d8dU, 0x3f06cc6abe399fc9U,
  0x3e0496b4bd777fb7U, 0x3db0c8f0be9f1b3fU, 0xbd0d6d8d3e964466U, 0xbeeea8de3e1f1b3fU,
  0xbec6e20e3d8d6d8dU, 0x3de5d205bef77fb7U, 0x3e91d8f900000000U, 0x3f2c5d84bc0d6d8dU,
  0x3dd424543dc276a2U, 0x3dc276a2be399fc9U, 0x3e399fc93d30c8f0U, 0xbebe0b35bd0d6d8dU,
  0xbe4276a23d777fb7U, 0xbe4276a2bec6e20eU, 0x3d8d6d8dbe164466U, 0x3f32fea6bcd42454U,
  0x3c8d6d8dbe164466U, 0x3db0c8f0bf4040ecU, 0xbe8d6d8d3f0496b4U, 0xbd777fb73d30c8f0U,
  0x3f11d8f9be399fc9U, 0xbe9f1b3fbf2a27ceU, 0x3c0d6d8d3c8d6d8dU, 0x3f2150f53d542454U,
  0x3e0d6d8d00000000U, 0x3d8d6d8dbf2c5d84U, 0xbdc276a23e964466U, 0xbeb5345d3c8d6d8dU,
  0xbee16699bdc276a2U, 0xbe6ea8debefbeb23U, 0x3dc276a2bdc276a2U, 0x3f4d83313c0d6d8dU,
  0x3e9f1b3fbdb0c8f0U, 0x3d542454becfb8e7U, 0xbc0d6d8d3e65d205U, 0xbde5d2053c8d6d8dU,
  0xbecb4d7bbe0d6d8dU, 0xbef77fb7be164466U, 0x3d30c8f0be4276a2U, 0x3f65d2053c8d6d8dU,
  0x3ef6022cbd91c866U, 0x3e11c866bf5f3adcU, 0xbec8738cbf288fb6U, 0xbf1656a9be48738cU,
  0xbfc62c6bbf4d01cfU, 0x3e240173bf5f3adcU, 0xbea40173bf91c866U, 0x3c91c8663f041d9cU,
  0xbc91c866bf1ae4ecU, 0xbddaac99bf2d1df9U, 0xbe6ce5a6bf11c866U, 0xbf1656a93c91c866U,
  0xbf9d2c0ebf9f7330U, 0x3f1656a9bf288fb6U, 0xbe6ce5a6bf08abe0U, 0xbd11c8663ed19013U,
  0x3f1f7330bddaac99U, 0x3ead1df93c91c866U, 0x3f3f5706bf48738cU, 0xbf08abe000000000U,
  0xbf9d2c0ebf7a906fU, 0x3ead1df9bf288fb6U, 0xbf48738cbf5aac99U, 0xbe48738c3f81d67bU,
  0xbdb63a803e7f1eb2U, 0x3e11c866bddaac99U, 0xbf4d01cfbf841d9cU, 0x3eb63a80bf08abe0U,
  0xbfc19e273d91c866U, 0x3ed19013bd11c866U, 0x3f63c91fbec8738cU, 0x3f9656a93d5aac99U,
  0x3c91c866bedaac99U, 0xbe91c8663e240173U, 0xbe5aac99bf88abe0U, 0x3ead1df93e88abe0U,
  0xbfcf48f1bec8738cU, 0x3f7173e9bc91c866U, 0x3f11c866bed19013U, 0x3e48738cbddaac99U,
  0xbc91c866U, 0x3dff1eb23f041d9cU, 0x3f48738cbfa1ba51U, 0x3f1656a9be7f1eb2U,
  0xbf9ae4ecbebf5706U, 0x3f88abe03c91c866U, 0x3dff1eb2bdff1eb2U, 0xbe88abe0bdb63a80U,
  0xbdff1eb23e240173U, 0x3f363a803f3ac8c3U, 0xbfb881a1bf9d2c0eU, 0x3ead1df9bedaac99U,
  0xbf3f57063ed19013U, 0x3fd3d73400000000U, 0x3fb63a803d11c866U, 0x3fc62c6bbf3ac8c3U,
  0x3d91c866be7f1eb2U, 0x3e91c8663ea40173U, 0xbf940f88bfb1ac3cU, 0x3f76022c3e6ce5a6U,
  0xbfdaac993f685763U, 0x3fd61e563eece5a6U, 0x3f561e563d11c866U, 0x3eff1eb2bf1f7330U,
  0x3d5aac99bf08abe0U, 0x3e9ae4ec3f1f7330U, 0xbe91c866c010a4d5U, 0x3fbac8c33e9ae4ecU,
  0xbf940f883f63c91fU, 0x3fcabaaebf519013U, 0x3eff1eb2bd5aac99U, 0xbd5aac99bf76022cU,
  0x3e085833be35caefU, 0xbdb5caefbe79f709U, 0xbe2a6e40bf02a9dcU, 0xbf085833bf301c98U,
  0xbe79f709be41279eU, 0x3e8e068b3df9f709U, 0xbd885833bf21e8bdU, 0xbe57e0fcbfb45f59U,
  0x3eb01c98be4c844dU, 0xbd08583300000000U, 0xbe41279ebe1f1191U, 0xbf1c3a65beaa6e40U,
  0xbe57e0fcbd085833U, 0x3ec1279e3e99633aU, 0x3ee33dabbf279714U, 0xbebb7946bf1f1191U,
  0x3ea4bfe9be885833U, 0x3d9f1191bdcc844dU, 0xbf058108beffa560U, 0xbe8e068bbf19633aU,
  0xbef448b13d9f1191U, 0xbd35caef3d633dabU, 0xbedd8f53bed7e0fcU, 0xbf2a6e40bedd8f53U,
  0x3e13b4e2be57e0fcU, 0xbedd8f53be57e0fcU, 0x3de33dabbf02a9dcU, 0xbf5509d0be79f709U,
  0xbe2a6e403de33dabU, 0x3e79f7093e9f1191U, 0x3ebb7946bee8ec02U, 0xbe93b4e2bf885833U,
  0x3d885833bd885833U, 0xbec6d5f500000000U, 0xbd085833becc844dU, 0xbf5ab828be57e0fcU,
  0xbe57e0fc3e13b4e2U, 0x3e79f7093eb5caefU, 0x3f5ab828bec1279eU, 0xbec1279ebe885833U,
  0x3ea4bfe9be6e9a5aU, 0xbf0e068bbcb5caefU, 0x3d35caefbeffa560U, 0xbf5ab828be57e0fcU,
  0xbed232a43e633dabU, 0xbe41279e00000000U, 0x3cb5caefbecc844dU, 0xbedd8f53bd35caefU,
  0x3f19633abe4c844dU, 0xbe1f1191be13b4e2U, 0x3e13b4e2bf1c3a65U, 0xbe41279ebdb5caefU,
  0xbebb79463f168c0eU, 0x3e8e068b3f058108U, 0xbe2a6e40be82a9dcU, 0xbf085833bf41279eU,
  0x3ebb7946bd885833U, 0x3e1f11913e6e9a5aU, 0xbdb5caefbedd8f53U, 0xbe9f1191bd633dabU,
  0xbef9f7093ee8ec02U, 0x3eaa6e403f19633aU, 0x3ea4bfe9bdf9f709U, 0xbee8ec02be13b4e2U,
  0x3f168c0ebd35caefU, 0xbe633dab3cb5caefU, 0x3c35caefbf301c98U, 0xbe633dabbde33dabU,
  0xbf1f11913f41279eU, 0xbe35caef3e4c844dU, 0xbf02a9dcbebb7946U, 0xbf2d456c3e6e9a5aU,
  0x3f079af8bf988e57U, 0xbd58f7f3bfbf8ae5U, 0x3e079af83e8e62b7U, 0x3e3dd8f5bea2b9f6U,
  0xbeed4f323da2b9f6U, 0x3e3049753ed23033U, 0x3f58f7f3beed4f32U, 0x3cd8f7f33ef416f1U,
  0x3eb71135bf777ad1U, 0x3e58f7f3bf894ce8U, 0x3d58f7f33eed4f32U, 0x3ee68772be668772U,
  0xbe58f7f300000000U, 0x3ee687723f44a0b4U, 0x3f6d4f32be4b6874U, 0x3ebdd8f53e8e62b7U,
  0x3d879af8bf9bf237U, 0x3e22b9f6bf261dd6U, 0xbe6687723e668772U, 0x3eb71135be9bf237U,
  0xbf33ad553da2b9f6U, 0x3dd8f7f33f1f5616U, 0x3f00d338be879af8U, 0x3cd8f7f33ef416f1U,
  0x3f559413bf188e57U, 0xbe952a77bf96dc67U, 0x3ecb68743ec4a0b4U, 0x3eb711353e152a77U,
  0xbf413cd43e7416f1U, 0x3e952a773e8e62b7U, 0x3f1f56163e952a77U, 0x3edfbfb33e304975U,
  0x3eed4f32bf11c697U, 0x3dd8f7f3bf828528U, 0x3ec4a0b43ec4a0b4U, 0x3e4b68743df416f1U,
  0xbf5230333d22b9f6U, 0x3ecb68743f371135U, 0x3f152a77be668772U, 0x3d58f7f33df416f1U,
  0x3ea2b9f6bf480494U, 0xbcd8f7f3bf1f5616U, 0x3ee687723ea981b6U, 0x3eb711353cd8f7f3U,
  0xbf6687723da2b9f6U, 0x3e152a773eed4f32U, 0x3f22b9f6be7416f1U, 0x3e079af83e3dd8f5U,
  0x3e80d338bea981b6U, 0xbed8f7f3bfba7515U, 0xbdd8f7f33f413cd4U, 0xbf152a773c58f7f3U,
  0xbf413cd4bf11c697U, 0x3f11c6973e879af8U, 0x3f44a0b4bdf416f1U, 0x3f11c6973e9bf237U,
  0x3ebdd8f5beb71135U, 0xbeb04975bfd74603U, 0xbe7416f13f3a7515U, 0xbf22b9f6bdbdd8f5U,
  0xbf8cb0c8be668772U, 0x3f188e573f1bf237U, 0x3f079af8bee68772U, 0x3ec4a0b43eb04975U,
  0x3eb04975be879af8U, 0xbe952a77bf44a0b4U, 0xbe879af83e879af8U, 0xbf1f5616becb6874U,
  0xbfc13cd4be7416f1U, 0x3dbdd8f53ed23033U, 0x3e58f7f3bf33ad55U, 0x3eb049753f00d338U,
  0xbe97f832bdd9196cU, 0x3f53abfcbd2dadf0U, 0xbdadadf0bfe13d93U, 0xbf53abfcbf48d11eU,
  0xbe8d1d53bf024274U, 0x3ece3e8d3d2dadf0U, 0x3e8d1d53beb888cfU, 0xbe4363ae3e6ecf2aU,
  0x3d824274be59196cU, 0x3eb888cf3cadadf0U, 0x3e17f832bfaaf738U, 0xbf743c9abf331b60U,
  0x3e2dadf0bf3df63eU, 0x3ec363aebcadadf0U, 0x3dadadf0bf07afe4U, 0xbdadadf03f3888cfU,
  0xbeb888cfbe97f832U, 0x3f2840803e824274U, 0x3e59196cbfdbd024U, 0xbf331b60bef9aa09U,
  0xbee3f44bbf53abfcU, 0x3d824274be4363aeU, 0xbcadadf0beadadf0U, 0xbeb888cf3ef9aa09U,
  0xbe4363ae3e59196cU, 0xbeeecf2a3e6ecf2aU, 0xbe4363aebff6f351U, 0x3e024274beb888cfU,
  0xbd824274be97f832U, 0x3e0242743e6ecf2aU, 0x3f3df63ebf07afe4U, 0x3d2dadf03e17f832U,
  0x3e8d1d53bece3e8dU, 0x3d2dadf03eadadf0U, 0x3e6ecf2abfc363aeU, 0x3e97f832bf4363aeU,
  0x3ec363ae3e17f832U, 0x3e17f8323e2dadf0U, 0x3f07afe4bee3f44bU, 0xbe6ecf2abdadadf0U,
  0x3e8d1d53bd2dadf0U, 0xbcadadf03f2dadf0U, 0x3ece3e8dbfe6ab03U, 0x3eadadf0bf3888cfU,
  0xbd8242743dadadf0U, 0x3e8d1d533f07afe4U, 0x3e59196cbeb888cfU, 0xbeb888cf3dadadf0U,
  0xbee3f44bbe97f832U, 0x3eadadf03dadadf0U, 0xbf63f44bc022d311U, 0x3f95417abec363aeU,
  0x3d8242743f8a669bU, 0x3f17f832beeecf2aU, 0x3e824274bd824274U, 0xbf17f8323e59196cU,
  0xbece3e8dbf0d1d53U, 0x3eadadf03eadadf0U, 0xbea2d311c0090b3fU, 0x3f9aaeeabe97f832U,
  0x3eadadf03fc363aeU, 0x3f3888cf3cadadf0U, 0x3ea2d311be2dadf0U, 0xbe97f832be024274U,
  0xbdd9196cbdadadf0U, 0x3e8d1d533ef9aa09U, 0xbeeecf2ac02c5294U, 0x3f4e3e8dbe97f832U,
  0xbf0d1d533f8fd40bU, 0x3f17f832bef9aa09U, 0xbec363aebe6ecf2aU, 0xbf4363aebdadadf0U,
  0xbec818863f118633U, 0x3eb5e7c03ea3b6f9U, 0x3eaccf5dbfaa8944U, 0xbe9a9e96be35e7c0U,
  0x3f6361b0bec81886U, 0x3e918633bdb5e7c0U, 0x3f1a9e96be918633U, 0x3d9186333e5a494cU,
  0xbe35e7c03eda494cU, 0x3e5a494c3e9a9e96U, 0x3dfeaad9bf93cc4cU, 0xbf118633beaccf5dU,
  0x3f83e19ebe7eaad9U, 0x3e6c7a13be886dd0U, 0x3ed130e9be23b6f9U, 0x3db5e7c03e9a9e96U,
  0xbefeaad93eda494cU, 0x3eda494c3ee361b0U, 0x3ef59276bf961265U, 0xbe6c7a13be23b6f9U,
  0x3ea3b6f93d5a494cU, 0x3ebf0023bdb5e7c0U, 0xbd118633bc918633U, 0x3ec818863e118633U,
  0x3d5a494c3ee361b0U, 0x3e35e7c03e481886U, 0x3d5a494cbf93cc4cU, 0x3f1f2ac8be7eaad9U,
  0x3f5130e93c918633U, 0x3e481886be9a9e96U, 0x3eda494cbe481886U, 0xbe35e7c03eaccf5dU,
  0xbe7eaad9bc918633U, 0x3e23b6f93d118633U, 0x3c918633bf2ccf5dU, 0x3f23b6f9be481886U,
  0x3fa8432bbc918633U, 0x3dda494cbef59276U, 0x3eb5e7c0bd5a494cU, 0xbe7eaad9be481886U,
  0xbe23b6f93c918633U, 0x3e9186333eaccf5dU, 0x3f118633bf3f0023U, 0x3f3a73f13e6c7a13U,
  0x3e6c7a133dfeaad9U, 0x3eb5e7c0bf0cfa01U, 0x3e35e7c03e23b6f9U, 0x3dda494c3d918633U,
  0xbe9a9e963db5e7c0U, 0x3e886dd03c918633U, 0xbf28432bbfd130e9U, 0x3eec7a13bdb5e7c0U,
  0x3ff106443dda494cU, 0x3e23b6f9bec81886U, 0x3e23b6f93d118633U, 0xbf315b8e3eaccf5dU,
  0x3e35e7c0beb5e7c0U, 0x3e118633bd918633U, 0xbf118633bf9a9e96U, 0x3ef592763d118633U,
  0x401063273ebf0023U, 0x3eb5e7c0be7eaad9U, 0xbc918633be35e7c0U, 0xbefeaad9bd918633U,
  0xbd918633be481886U, 0x3e23b6f93ed130e9U, 0xbee361b0bfa5fd12U, 0x3f5ed57e3e35e7c0U,
  0x3f5ed57e3f0cfa01U, 0x3ebf0023beda494cU, 0xbe886dd03e9a9e96U, 0x3c918633bc918633U,
  0x3dae40bd3de85651U, 0x3e4b4b87be89f340U, 0xbe82b08e3e02b08eU, 0xbe89f340bec408d4U,
  0x3fa35cb1bf235cb1U, 0xbf09f340bfae40bdU, 0x3f84813abef6dbb6U, 0x3fa6fe0a3e9878a5U,
  0x3dcb4b87bce85651U, 0x3ecb4b873e9fbb58U, 0x3ec408d43e89f340U, 0xbf0651e7bef6dbb6U,
  0x3e1fbb58be76dbb6U, 0xbecb4b87bf4408d4U, 0x3f9878a5bf7a7d0fU, 0x3fd0bd8dbe89f340U,
  0xbe02b08e3de85651U, 0x3e9878a5bd2e40bdU, 0xbf0651e7be2e40bdU, 0xbe685651bd2e40bdU,
  0xbfa35cb1bef6dbb6U, 0xbfa18c04be82b08eU, 0x3fb5836fbf1135f3U, 0x3fcb4b8700000000U,
  0xbe1fbb58bed9d0ecU, 0xbdae40bdbd685651U, 0xbf47aa2e3dcb4b87U, 0xbea6fe0abf09f340U,
  0x3f2a9f63be9fbb58U, 0xbf3924c9bf40677bU, 0x3e4b4b87bf2e40bdU, 0x3f2a9f633ce85651U,
  0xbf4408d4be89f340U, 0x3e9878a53e1135f3U, 0xbf5d72453ebcc622U, 0xbf2e40bdbf35836fU,
  0x3e82b08ebe685651U, 0xbefe1e69bee85651U, 0x3f0d9499bf1fbb58U, 0x3f4eece0bf14d74cU,
  0xbef6dbb63e1fbb58U, 0x3d685651bdcb4b87U, 0xbf59d0ecbe82b08eU, 0xbf2e40bdbee85651U,
  0xbfaa9f63be59d0ecU, 0xbf6bf7aabe1135f3U, 0x3e89f340bef6dbb6U, 0x3f93069f3c685651U,
  0x3f26fe0a3c685651U, 0x3f35836fbf3cc622U, 0xbf3cc6223ed9d0ecU, 0xbde856513e82b08eU,
  0x3fe2e44b3e82b08eU, 0xbf9878a5bf4b4b87U, 0xbd9135f3bf3924c9U, 0x3f562f933ea6fe0aU,
  0x3eb5836fbe9fbb58U, 0x3f4b4b87be1fbb58U, 0xbf7a7d0f3ed28e39U, 0x3e4b4b87bf235cb1U,
  0x3fe685a43e2e40bdU, 0xbfa18c04bf1135f3U, 0x3dae40bdbf64b4f8U, 0x3f4eece0be9135f3U,
  0x3e89f340bc685651U, 0xbce85651bf7e1e69U, 0xbf40677b3e1135f3U, 0xbe2e40bd3e9135f3U,
  0xbfb3b2c33e76dbb6U, 0xbfcb4b873ebcc622U, 0xbe89f340bf26fe0aU, 0x3fae40bdbee85651U,
  0x3e5c5091bfec99fdU, 0xbfb80f80bf75590eU, 0xbf9a013a4002ed47U, 0x3fa0462fc002bcccU,
  0xc002d6563e1363eeU, 0x3fdedc7abfa5b19aU, 0x401db901c00f57d8U, 0x40460d8a406c4c36U,
  0x3f895e74bc226920U, 0xbc8cda204012be2aU, 0x3fb5580a3fd5e0deU, 0x3f1323293f753354U,
  0xbe8815d2bf96a5b9U, 0x4041ea103f852998U, 0x4027bb19be039094U, 0x40447146be49fe50U,
  0xba0b130e3900605cU, 0xbae27114ba47b256U, 0xba15c5c138e43987U, 0xbac7b256U,
  0xba4b433c3ab96ebeU, 0x39e43987b9dd17bbU, 0xb99ce78d37e43987U, 0xba80605cba396ebeU,
  0x3a240959b8ab2b25U, 0x386439873a0b130eU, 0xb9a40959U, 0x3abcffa438643987U,
  0xb8c7b256b9643987U, 0xb8643987ba878228U, 0x39b96ebeba4b433cU, 0x3a0b130e3a2b2b25U,
  0x3a9928db394e81dfU, 0x3a89abeaba32f916U, 0x3aaf87fdbabb93d5U, 0xba4e81df3a77cf0bU,
  0xba2c16e4b977cf0bU, 0x3917704eba28a5cbU, 0x3a8d1d03375c4643U, 0xba4b10c6ba13ff35U,
  0xb9d56411b92534b2U, 0x39dc46433a66998eU, 0xba442e94baadcf71U, 0xb95c4643ba1ae167U,
  0x3a3d4c62b9ce81dfU, 0xb94e81dfbada8db6U, 0xbada8db63a40bd7bU, 0x39b9db49ba1ae167U,
  0x39b8e0c639601835U, 0x3a2812283aa277f3U, 0x39768107398674edU, 0xbab1e00438e01835U,
  0x3a83a7d2388674edU, 0xb99cddbfba80dab8U, 0xba3613ab39a277f3U, 0xb9c4152fb9a81228U,
  0x390674ed389cddbfU, 0xba5a7e01ba7c1b3cU, 0xba6b4c9e3a62e550U, 0xb73346913a850e60U,
  0xb9be7afaba87db7aU, 0x390674edb9be7afaU, 0xb9a277f3baac45cfU, 0xba334691393e7afaU,
  0xbac4f1ba3994a31eU, 0xba325d57b9d7861eU, 0xbabba789b9c8a902U, 0xb994a31eba185a65U,
  0x3a23803aba9ded4fU, 0x39b25d573aacca6cU, 0xbabba7893994a31eU, 0x3985c60139b25d57U,
  0xbaa7378139aaeec8U, 0x398d348fbaa73781U, 0xb894a31eb9c13a73U, 0xbac13a73baa73781U,
  0xba1c11ac3aebf625U, 0x39aaeec83a897d48U, 0x3a6a1a823a1c11acU, 0xbaa9132539a3803aU,
  0xb929f204b94ee3d8U, 0xb9b15595ba050030U, 0xb99edcab39d64769U, 0xb8315595b9a6403cU,
  0xb9b15595ba228e73U, 0xb9a28e7339cee3d8U, 0x39b1559537b15595U, 0x39bc6aeeb76c721cU,
  0xb9650e8bb993c752U, 0x39fb393eb9901589U, 0xb9b8b9263813c752U, 0xba1b2ae2b9a9f204U,
  0x3a26403cba1d03c7U, 0xba6a99383a246757U, 0xb8ddaafa3988b1f8U, 0x3a2bcae8b9a9f204U,
  0x39b7532bbaf5d26eU, 0x3a0da8fe3947fda3U, 0x39f9fd0c3979fd0cU, 0x3a2ad3513a33288dU,
  0xba695294ba33288dU, 0xbad052dfba26a8b2U, 0x39d052dfbb04491aU, 0x3a3fa8673a5cd2b9U,
  0x3915fe3abace3d90U, 0xba8fbe4d39c7fda3U, 0x3a37532b39e0fd57U, 0xba15fe3a3958a81bU,
  0xba11d39cb78553c2U, 0x3a8769113a0da8feU, 0x398553c2380553c2U, 0xb80553c2bab1133eU,
  0x3e1a7c9e3db9f498U, 0x3e874333bc590cf5U, 0x3d34aacbbf01f8b4U,
};


ai_handle g_tinyaudiocnn_weights_table[1 + 2] = {
  AI_HANDLE_PTR(AI_MAGIC_MARKER),
  AI_HANDLE_PTR(s_tinyaudiocnn_weights_array_u64),
  AI_HANDLE_PTR(AI_MAGIC_MARKER),
};

